{
  "!": 5,
  "!!": 5850,
  "!!!": 17560,
  "!!!!": 24461,
  "!!!\"": 27718,
  "!!\"": 20006,
  "!\"": 739,
  "!\",": 28582,
  "!\"_": 15354,
  "!'": 2991,
  "!''": 24705,
  "!)": 14412,
  "!?": 24430,
  "!?\"": 20474,
  "!_": 5892,
  "!âĢĶ": 24140,
  "\"": 6,
  "\"'": 14402,
  "\")": 10014,
  "\").": 25825,
  "\",": 3689,
  "\".": 3186,
  "\"...": 8959,
  "\":": 21978,
  "\";": 19507,
  "\"?": 15539,
  "\"_": 17822,
  "\"âĢĶ": 14944,
  "#": 7,
  "##": 973,
  "###": 1811,
  "####": 8652,
  "#####": 22413,
  "$": 8,
  "%": 9,
  "%)": 15383,
  "%,": 18028,
  "%.": 19680,
  "&": 10,
  "'": 11,
  "'\"": 29232,
  "''": 8196,
  "''''": 24428,
  "',": 4197,
  "',\"": 23606,
  "'.": 3528,
  "'.\"": 13100,
  "'...": 23702,
  "';": 24974,
  "'?": 16029,
  "'?\"": 14437,
  "'_": 20452,
  "'d": 623,
  "'ll": 703,
  "'m": 608,
  "'re": 674,
  "'s": 348,
  "'t": 365,
  "'ve": 798,
  "(": 12,
  "((": 14156,
  ")": 13,
  "))": 8557,
  ")**": 13471,
  "),": 1859,
  ")-": 27975,
  ").": 1379,
  ").\"": 24250,
  ").**": 29070,
  "):": 6917,
  ");": 7177,
  ")?": 23420,
  ")_": 12134,
  "*": 14,
  "**": 766,
  "**\"": 25891,
  "**(": 27692,
  "***": 18420,
  "****": 23550,
  "**.": 7827,
  "**_": 13853,
  "+": 15,
  ",": 16,
  ",\"": 433,
  ",\"_": 16778,
  ",'": 1552,
  ",**": 17479,
  ",...": 14581,
  ",...\"": 28716,
  ",_": 4480,
  "-": 17,
  "-\"": 7283,
  "-'": 23454,
  "-)": 21572,
  "--": 2075,
  "--\"": 9887,
  "---": 16338,
  "----": 13482,
  "--------": 26443,
  ".": 18,
  ".\"": 350,
  ".\"**": 18948,
  ".\"_": 5651,
  ".'": 974,
  ".'\"": 10480,
  ".''": 16464,
  ".'_": 22840,
  ".)": 4269,
  ".),": 25964,
  ".).": 23221,
  ".*": 6744,
  ".**": 6118,
  ".,": 3345,
  ".-": 19514,
  "..": 419,
  "..\"": 26349,
  "...": 616,
  "...\"": 1440,
  "...'": 6502,
  "...)": 25492,
  "...,": 28230,
  "...,\"": 26249,
  "....": 1940,
  "....\"": 7687,
  ".....": 10863,
  "......": 15717,
  ".......": 24643,
  "........": 4864,
  "................": 9633,
  "................................": 19397,
  "...?": 19763,
  "...?\"": 12307,
  "..._": 15275,
  ".:": 28806,
  ".@": 28435,
  ".[": 16452,
  ".]": 15577,
  "._": 2063,
  ".Â»": 25534,
  "/": 19,
  "/*": 19488,
  "//": 4157,
  "0": 20,
  "00": 1053,
  "000": 3264,
  "0000": 20573,
  "001": 21669,
  "01": 1643,
  "02": 13963,
  "03": 14624,
  "04": 13979,
  "05": 10790,
  "06": 15651,
  "07": 12865,
  "08": 13016,
  "09": 14089,
  "1": 21,
  "10": 2867,
  "100": 10950,
  "101": 20816,
  "11": 3166,
  "110": 27775,
  "112": 29368,
  "12": 3085,
  "125": 28005,
  "1250": 25232,
  "13": 3614,
  "14": 3746,
  "15": 3620,
  "150": 26308,
  "16": 3526,
  "17": 3971,
  "18": 3889,
  "19": 2851,
  "2": 22,
  "20": 3669,
  "200": 7020,
  "2000": 29571,
  "2008": 29146,
  "2009": 27112,
  "201": 6027,
  "2010": 26476,
  "2011": 24481,
  "2012": 23318,
  "2013": 23063,
  "2014": 23754,
  "2015": 24139,
  "2016": 29516,
  "21": 5718,
  "22": 4995,
  "23": 4846,
  "231": 25607,
  "24": 5277,
  "25": 4611,
  "26": 5665,
  "27": 5503,
  "28": 6004,
  "29": 5788,
  "3": 23,
  "30": 3917,
  "300": 20899,
  "31": 7801,
  "32": 8247,
  "33": 5654,
  "333": 29541,
  "34": 7553,
  "35": 6969,
  "36": 7501,
  "37": 7306,
  "38": 7394,
  "39": 7747,
  "4": 24,
  "40": 6353,
  "400": 27782,
  "41": 9827,
  "42": 9846,
  "43": 9982,
  "44": 8580,
  "45": 6346,
  "46": 7906,
  "47": 7008,
  "48": 8101,
  "49": 7978,
  "5": 25,
  "50": 4322,
  "500": 15155,
  "51": 11438,
  "52": 11229,
  "53": 8454,
  "54": 11950,
  "55": 9832,
  "56": 8818,
  "57": 8635,
  "58": 10133,
  "59": 9622,
  "6": 26,
  "60": 8688,
  "600": 29931,
  "61": 14573,
  "62": 14430,
  "63": 14983,
  "64": 15936,
  "65": 14313,
  "66": 11396,
  "67": 9528,
  "68": 12638,
  "69": 13435,
  "7": 27,
  "70": 9919,
  "71": 17331,
  "72": 17638,
  "73": 15478,
  "74": 16904,
  "75": 14188,
  "76": 16935,
  "77": 13345,
  "78": 7671,
  "79": 15438,
  "8": 28,
  "80": 9358,
  "81": 17487,
  "82": 18342,
  "83": 16348,
  "84": 18178,
  "85": 17381,
  "86": 18169,
  "87": 11733,
  "88": 13798,
  "89": 15170,
  "9": 29,
  "90": 10164,
  "91": 17621,
  "92": 15982,
  "93": 16056,
  "94": 16970,
  "95": 12677,
  "96": 17102,
  "97": 12028,
  "98": 12060,
  "99": 7087,
  ":": 30,
  ":\"": 26798,
  ":((": 26327,
  ":**": 4676,
  "://": 4439,
  ":_": 12965,
  ";": 31,
  ";\"": 25502,
  ";_": 7489,
  "<": 32,
  "</s>": 2,
  "<mask>": 4,
  "<pad>": 1,
  "<s>": 0,
  "<unk>": 3,
  "=": 33,
  "==": 21360,
  ">": 34,
  ">.": 27091,
  ">>": 19633,
  "?": 35,
  "?!": 10171,
  "?!\"": 8564,
  "?\"": 423,
  "?\",": 24555,
  "?\"_": 11528,
  "?'": 1458,
  "?'\"": 26271,
  "?''": 25314,
  "?)": 13755,
  "?**": 25174,
  "?...": 22280,
  "??": 13857,
  "?_": 4531,
  "@": 36,
  "A": 37,
  "AA": 13935,
  "AB": 8969,
  "ABLE": 19839,
  "AC": 4646,
  "ACE": 15193,
  "ACH": 23208,
  "ACK": 12244,
  "ACT": 20027,
  "AD": 4710,
  "AF": 10459,
  "AG": 8778,
  "AGE": 17209,
  "AH": 11718,
  "AIN": 11903,
  "AJ": 26482,
  "AK": 8283,
  "AKE": 18858,
  "AL": 2754,
  "ALE": 13291,
  "ALK": 19597,
  "ALL": 10084,
  "ALLY": 24811,
  "AM": 4773,
  "AME": 20023,
  "AMING": 23653,
  "AN": 2467,
  "ANC": 26998,
  "ANCE": 16374,
  "AND": 7030,
  "ANG": 14547,
  "ANK": 27980,
  "ANS": 20933,
  "ANT": 11746,
  "AP": 3296,
  "APP": 23937,
  "APTER": 4604,
  "AR": 2868,
  "ARD": 11617,
  "ARK": 21576,
  "ART": 10626,
  "ARY": 18070,
  "AS": 3594,
  "ASE": 20532,
  "ASH": 25812,
  "ASS": 17994,
  "AST": 16082,
  "AT": 2259,
  "ATE": 11049,
  "ATED": 15396,
  "ATER": 25763,
  "ATH": 21373,
  "ATHER": 28939,
  "ATING": 18185,
  "ATION": 7491,
  "ATIONS": 20869,
  "AV": 7877,
  "AVE": 16756,
  "AW": 19098,
  "AY": 5625,
  "Aaron": 19620,
  "Ab": 4490,
  "Abb": 25981,
  "Abby": 24560,
  "Abd": 24238,
  "About": 7088,
  "Above": 29109,
  "Absolutely": 17182,
  "Ac": 13632,
  "According": 13089,
  "Across": 28524,
  "Act": 6515,
  "Acts": 16175,
  "Actually": 9198,
  "Ad": 5602,
  "Adam": 12712,
  "Add": 16960,
  "Adrian": 23458,
  "Af": 23224,
  "After": 2308,
  "Ag": 6358,
  "Again": 8834,
  "Agent": 27182,
  "Agreed": 27759,
  "Ah": 4320,
  "Ahh": 28951,
  "Aiden": 26385,
  "Air": 26264,
  "Ak": 22226,
  "Al": 2377,
  "Alan": 19372,
  "Albert": 28948,
  "Alec": 27860,
  "Alex": 6988,
  "Alexander": 28535,
  "Alf": 28186,
  "Alice": 15953,
  "Alicia": 22794,
  "All": 2190,
  "Allah": 12164,
  "AllÃ¢hu": 18801,
  "Almost": 15320,
  "Along": 29603,
  "Already": 27928,
  "Alright": 8301,
  "Also": 12936,
  "Although": 8516,
  "Always": 16245,
  "Am": 5709,
  "Amanda": 19461,
  "Amb": 29351,
  "Amber": 27002,
  "Amelia": 28851,
  "Americ": 11158,
  "American": 13904,
  "Among": 24732,
  "Amy": 15030,
  "An": 2276,
  "Ancient": 11760,
  "And": 1091,
  "Andrew": 15775,
  "Andy": 24479,
  "Ang": 7916,
  "Angel": 14795,
  "Angela": 21524,
  "Angie": 29245,
  "Ann": 13834,
  "Anna": 13685,
  "Anne": 19175,
  "Annie": 20771,
  "Another": 6038,
  "Answer": 26206,
  "Ant": 11786,
  "Anton": 26857,
  "Any": 4365,
  "Anyone": 19059,
  "Anything": 13085,
  "Anyway": 10267,
  "Ap": 19663,
  "App": 9403,
  "Apparently": 15960,
  "April": 20744,
  "Ar": 4348,
  "Are": 2324,
  "Aren": 15202,
  "Ari": 25711,
  "Around": 20576,
  "Art": 12367,
  "Arthur": 19465,
  "As": 1433,
  "Ash": 11531,
  "Ashley": 26210,
  "Ashton": 27534,
  "Ask": 19249,
  "Ass": 16579,
  "Ast": 25680,
  "At": 2533,
  "Att": 20393,
  "Aud": 28837,
  "August": 22945,
  "Aunt": 19880,
  "Aura": 25690,
  "Austin": 20279,
  "Aut": 29928,
  "Author": 22918,
  "Av": 20306,
  "Ava": 23247,
  "Aw": 14240,
  "Ay": 23685,
  "Aye": 10891,
  "Az": 21375,
  "B": 38,
  "BA": 21019,
  "BC": 9272,
  "BD": 23776,
  "BE": 15809,
  "BER": 24772,
  "BI": 7512,
  "BL": 21378,
  "BM": 15328,
  "BN": 11336,
  "BP": 27808,
  "BR": 20783,
  "BS": 21880,
  "Ba": 19907,
  "Baby": 20402,
  "Back": 6356,
  "Background": 19798,
  "Bad": 19408,
  "Bar": 14000,
  "Barry": 26922,
  "Bart": 27046,
  "Bas": 25068,
  "Bay": 19165,
  "Be": 2502,
  "Beats": 12517,
  "Because": 4230,
  "Becca": 29842,
  "Beck": 20616,
  "Before": 5013,
  "Behind": 17364,
  "Behold": 26339,
  "Being": 13695,
  "Bel": 11194,
  "Believe": 21050,
  "Ben": 9378,
  "Bern": 25299,
  "Besides": 11577,
  "Best": 20651,
  "Bet": 8727,
  "Beth": 17237,
  "Better": 14032,
  "Between": 24683,
  "Bey": 26103,
  "Beyond": 27205,
  "Bi": 27760,
  "Big": 14898,
  "Bill": 13346,
  "Billy": 16794,
  "Bit": 26297,
  "Bl": 5291,
  "Black": 15668,
  "Blake": 20753,
  "Bless": 21507,
  "Blessed": 27774,
  "Blood": 15324,
  "Bloody": 26582,
  "Blue": 24835,
  "Bo": 20160,
  "Board": 27304,
  "Bob": 15774,
  "Bobby": 23816,
  "Bon": 25349,
  "Book": 8275,
  "Books": 27360,
  "Both": 9183,
  "Boy": 16233,
  "Br": 8799,
  "Bra": 21788,
  "Brad": 15948,
  "Brand": 20370,
  "Brandon": 28179,
  "Bre": 12534,
  "Break": 27973,
  "Brian": 14852,
  "Brien": 28731,
  "Bring": 16833,
  "Bro": 12972,
  "Brother": 21183,
  "Bry": 18054,
  "Bu": 29218,
  "Bull": 22378,
  "Bur": 25169,
  "Burn": 24812,
  "But": 1204,
  "By": 3841,
  "Bye": 22614,
  "C": 39,
  "CA": 12508,
  "CC": 7603,
  "CD": 14849,
  "CE": 7285,
  "CH": 3822,
  "CHAPTER": 5981,
  "CI": 22920,
  "CL": 9924,
  "CLA": 26405,
  "CM": 27907,
  "CO": 8925,
  "COM": 17882,
  "CON": 29731,
  "CR": 9743,
  "CT": 7079,
  "CTION": 15096,
  "Ca": 21270,
  "Cal": 14219,
  "Caleb": 23938,
  "Call": 9414,
  "Calm": 19285,
  "Cam": 11427,
  "Cameron": 22640,
  "Can": 3260,
  "Cap": 28072,
  "Captain": 10985,
  "Car": 7481,
  "Care": 16857,
  "Careful": 28525,
  "Carl": 13763,
  "Case": 20876,
  "Casey": 25968,
  "Cass": 13066,
  "Cassie": 22202,
  "Cat": 22766,
  "Catherine": 28971,
  "Cause": 25252,
  "Ce": 23327,
  "Cent": 19556,
  "Certainly": 18237,
  "Ch": 3096,
  "Cha": 10054,
  "Chakra": 27319,
  "Chan": 13061,
  "Chapter": 1987,
  "Char": 6998,
  "Charles": 17563,
  "Charlie": 13240,
  "Charlotte": 27516,
  "Chase": 21266,
  "Che": 10853,
  "Check": 22313,
  "Chief": 24779,
  "Children": 25770,
  "Chinese": 10835,
  "Ching": 11732,
  "Chloe": 25498,
  "Chris": 13321,
  "Christ": 6963,
  "Christian": 16313,
  "Chuck": 26591,
  "Cindy": 26751,
  "Cl": 5305,
  "Cla": 12502,
  "Claire": 15870,
  "Clay": 27316,
  "Cle": 19804,
  "Clear": 21963,
  "Clearly": 29092,
  "Close": 23363,
  "Co": 13615,
  "Col": 9083,
  "Cole": 19707,
  "Colin": 25219,
  "Coll": 19333,
  "Colonel": 26233,
  "Colour": 27070,
  "Com": 8308,
  "Come": 3295,
  "Coming": 19554,
  "Comm": 14260,
  "Commander": 26315,
  "Commun": 28159,
  "Comp": 25958,
  "Con": 5169,
  "Conclusion": 22508,
  "Conclusions": 29037,
  "Conf": 17486,
  "Cong": 21764,
  "Congratulations": 26147,
  "Connor": 18433,
  "Cons": 14819,
  "Consider": 25190,
  "Cont": 11828,
  "Contin": 26947,
  "Cool": 20457,
  "Copyright": 10892,
  "Cor": 10955,
  "Could": 8405,
  "Couldn": 28729,
  "Count": 27350,
  "Cover": 19374,
  "Cr": 21811,
  "Cra": 20592,
  "Cre": 22859,
  "Cs": 17547,
  "Cur": 23488,
  "Cut": 27480,
  "Cy": 20600,
  "D": 40,
  "DA": 19433,
  "DD": 22921,
  "DE": 28704,
  "DL": 26640,
  "DNA": 20768,
  "DP": 25784,
  "DR": 19004,
  "Da": 16468,
  "Dad": 6162,
  "Dadashri": 13675,
  "Daddy": 19207,
  "Dam": 13415,
  "Dammit": 26949,
  "Damn": 7152,
  "Dan": 5722,
  "Dana": 25471,
  "Daniel": 10097,
  "Danny": 14256,
  "Dar": 10806,
  "Dark": 18101,
  "Darwin": 28177,
  "Dav": 7677,
  "Dave": 15896,
  "David": 8730,
  "Dawn": 27314,
  "Day": 13086,
  "De": 4894,
  "Dead": 23523,
  "Dean": 27140,
  "Dear": 11141,
  "Death": 19379,
  "Deb": 28431,
  "Dec": 16923,
  "December": 27553,
  "Deep": 25480,
  "Def": 16631,
  "Definitely": 25048,
  "Del": 12769,
  "Dem": 24588,
  "Den": 23344,
  "Dep": 18732,
  "Department": 29799,
  "Der": 28935,
  "Derek": 23751,
  "Des": 7921,
  "Despite": 10916,
  "Det": 16173,
  "Detective": 23227,
  "Dev": 16417,
  "Diana": 10716,
  "Did": 2951,
  "Didn": 12723,
  "Dinner": 27652,
  "Dis": 15763,
  "Disc": 27470,
  "Div": 23826,
  "Do": 1788,
  "Doc": 22135,
  "Doctor": 17789,
  "Does": 6141,
  "Doesn": 17225,
  "Dom": 16635,
  "Domain": 19864,
  "Domin": 26061,
  "Don": 2004,
  "Donald": 15935,
  "Dou": 17226,
  "Down": 10525,
  "Download": 15592,
  "Dr": 7300,
  "Dra": 19863,
  "Drake": 26836,
  "Drew": 23111,
  "Dude": 22206,
  "Dun": 20617,
  "During": 10188,
  "Dylan": 25383,
  "E": 41,
  "EA": 27877,
  "EAR": 26724,
  "EC": 5261,
  "ECT": 11647,
  "ECTION": 26911,
  "ED": 2966,
  "EE": 7661,
  "EEP": 22018,
  "EL": 4059,
  "ELF": 23700,
  "ELL": 12894,
  "ELY": 21323,
  "EM": 5707,
  "EMALE": 19267,
  "EMENT": 29995,
  "EN": 2347,
  "ENCE": 19156,
  "END": 13746,
  "ENE": 27425,
  "ENS": 20273,
  "ENT": 5100,
  "ENTS": 24176,
  "ENTY": 20213,
  "EO": 8044,
  "EP": 21448,
  "ER": 1617,
  "ERE": 18130,
  "ERS": 8347,
  "ERSON": 13970,
  "ERT": 19715,
  "ES": 2724,
  "ESH": 22355,
  "ESS": 9223,
  "EST": 11764,
  "ESUS": 22705,
  "ET": 4030,
  "ETHING": 19578,
  "Each": 11540,
  "Earl": 29793,
  "Early": 24434,
  "Earth": 23061,
  "Easy": 20792,
  "Eat": 28479,
  "Ed": 8438,
  "Edd": 23093,
  "Eddie": 23741,
  "Edward": 22191,
  "Eh": 27190,
  "Eight": 20781,
  "Either": 21482,
  "El": 5865,
  "Ele": 19896,
  "Elect": 27085,
  "Eli": 29816,
  "Elizabeth": 15072,
  "Ell": 20644,
  "Ellen": 25611,
  "Ellie": 26104,
  "Em": 6131,
  "Emblem": 20244,
  "Emily": 15662,
  "Emma": 16190,
  "En": 7005,
  "End": 20064,
  "Eng": 20826,
  "Enjoy": 28305,
  "Enough": 14763,
  "Enter": 28925,
  "Ep": 16083,
  "Ephesians": 23696,
  "Er": 12971,
  "Eric": 10488,
  "Erin": 27826,
  "Es": 17100,
  "Especially": 25738,
  "Est": 21126,
  "Ethan": 16747,
  "Eur": 29381,
  "Ev": 14892,
  "Eva": 27802,
  "Evan": 29187,
  "Eve": 16851,
  "Even": 5023,
  "Event": 14444,
  "Eventually": 14733,
  "Ever": 18308,
  "Every": 3629,
  "Everybody": 21218,
  "Everyone": 7051,
  "Everything": 8450,
  "Ex": 3807,
  "Exactly": 12460,
  "Excellent": 17666,
  "Except": 16076,
  "Excuse": 10678,
  "Exodus": 29105,
  "Ext": 29984,
  "Ez": 23254,
  "F": 42,
  "FA": 17890,
  "FC": 28285,
  "FF": 14472,
  "FL": 17131,
  "FO": 17823,
  "FOR": 20919,
  "FR": 25472,
  "FS": 25798,
  "FUL": 27657,
  "Face": 22370,
  "Fair": 19060,
  "Faith": 23268,
  "Fal": 29429,
  "Fall": 29426,
  "Far": 15367,
  "Father": 11262,
  "Fe": 27580,
  "Fear": 21806,
  "Feel": 29239,
  "Feeling": 18030,
  "Fel": 23083,
  "Feng": 11904,
  "Fer": 26575,
  "Fif": 20323,
  "Fight": 28972,
  "Figure": 18087,
  "Fin": 24387,
  "Finally": 7125,
  "Find": 18753,
  "Fine": 7131,
  "Fire": 21434,
  "First": 6942,
  "Five": 12368,
  "Fl": 11664,
  "Follow": 16816,
  "Following": 21578,
  "Food": 26228,
  "For": 2280,
  "Fore": 22258,
  "Forget": 19389,
  "Forgive": 20662,
  "Form": 27855,
  "Fort": 20960,
  "Fortunately": 23549,
  "Four": 12004,
  "Fr": 7112,
  "Franc": 26486,
  "Frank": 9851,
  "Fred": 15517,
  "Free": 21100,
  "Frequency": 19814,
  "Frid": 24411,
  "Friday": 25370,
  "Friend": 16131,
  "Friendly": 27636,
  "From": 5012,
  "Fuck": 8560,
  "Fucking": 26725,
  "Funny": 25123,
  "Fur": 19167,
  "Further": 21971,
  "G": 43,
  "GA": 21356,
  "GB": 24978,
  "GE": 11826,
  "GET": 22870,
  "GF": 9424,
  "GFR": 13950,
  "GG": 15519,
  "GING": 22259,
  "GR": 17360,
  "GS": 16442,
  "Gab": 10840,
  "Gabe": 23831,
  "Gabriel": 16384,
  "Gal": 16611,
  "Gar": 18505,
  "Gary": 23804,
  "Gavin": 25130,
  "Ge": 8436,
  "Gee": 25612,
  "Gem": 27510,
  "Gen": 8126,
  "General": 16009,
  "Genesis": 17588,
  "Gent": 23946,
  "Georg": 24876,
  "George": 12627,
  "Ger": 17790,
  "Get": 4538,
  "Getting": 18487,
  "Gil": 29236,
  "Girl": 20259,
  "Give": 8713,
  "Given": 27003,
  "Gl": 8847,
  "Glad": 20864,
  "Glancing": 29726,
  "Go": 4548,
  "God": 4239,
  "Going": 20238,
  "Gold": 28223,
  "Good": 2783,
  "Goodbye": 25185,
  "Goodnight": 29787,
  "Got": 11501,
  "Gr": 9729,
  "Grace": 19415,
  "Grand": 14417,
  "Grant": 27225,
  "Great": 8089,
  "Greek": 14277,
  "Green": 23860,
  "Greg": 14987,
  "Gu": 8258,
  "Guess": 17954,
  "Guys": 29677,
  "H": 44,
  "HA": 23084,
  "HC": 26306,
  "HE": 2619,
  "HED": 22055,
  "HER": 10889,
  "HH": 16213,
  "HING": 12856,
  "HR": 26870,
  "HS": 25951,
  "HT": 8599,
  "HY": 11368,
  "Ha": 10976,
  "Had": 11582,
  "Hal": 14231,
  "Half": 17578,
  "Hall": 25175,
  "Ham": 24848,
  "Han": 29018,
  "Hand": 28061,
  "Hang": 22626,
  "Hank": 25484,
  "Hannah": 24292,
  "Happy": 19271,
  "Har": 11326,
  "Hard": 18897,
  "Harry": 16133,
  "Has": 13211,
  "Have": 4721,
  "Haven": 23607,
  "Having": 12672,
  "Haw": 22563,
  "Hay": 23629,
  "He": 670,
  "Head": 26894,
  "Hear": 29783,
  "Hearing": 24905,
  "Heather": 23848,
  "Heaven": 28384,
  "Hebrew": 19104,
  "Hebrews": 22092,
  "Hel": 8111,
  "Helen": 16750,
  "Hell": 4569,
  "Hello": 5454,
  "Help": 13837,
  "Hen": 11418,
  "Henry": 13247,
  "Her": 2758,
  "Here": 4428,
  "Hey": 2997,
  "Hi": 6185,
  "High": 20572,
  "Him": 26633,
  "His": 2483,
  "Hist": 25389,
  "Hmm": 9276,
  "Hmmm": 22754,
  "Ho": 27624,
  "Hold": 10873,
  "Holding": 28353,
  "Holl": 27753,
  "Holly": 22721,
  "Holy": 12878,
  "Home": 21200,
  "Hon": 16724,
  "Honestly": 23740,
  "Honey": 18413,
  "Hope": 14379,
  "Hopefully": 27248,
  "Hor": 27844,
  "Hot": 21034,
  "How": 1478,
  "However": 7423,
  "Huh": 13395,
  "Hum": 20736,
  "Human": 21228,
  "Hunter": 23016,
  "Hurry": 20784,
  "Hy": 22315,
  "I": 45,
  "IA": 8315,
  "IAL": 18592,
  "IAN": 27206,
  "IB": 14023,
  "IC": 3174,
  "ICAL": 18410,
  "ICE": 8598,
  "ICES": 20382,
  "ICK": 12256,
  "ID": 4577,
  "IDE": 12974,
  "IDING": 28303,
  "IDS": 15482,
  "IE": 11343,
  "IEL": 29538,
  "IES": 16118,
  "IF": 8020,
  "IFE": 25122,
  "IFF": 24797,
  "IG": 6146,
  "IGH": 28813,
  "IGHT": 10544,
  "II": 5611,
  "III": 17172,
  "IK": 14153,
  "IKE": 21525,
  "IL": 4343,
  "ILD": 27610,
  "ILE": 20345,
  "ILL": 9900,
  "IM": 6294,
  "IN": 1575,
  "IND": 17249,
  "INE": 10870,
  "ING": 2165,
  "INGS": 24972,
  "INK": 22837,
  "INS": 27853,
  "INT": 19483,
  "INTER": 29954,
  "IO": 11858,
  "ION": 3602,
  "IONS": 10941,
  "IOR": 28844,
  "IOUS": 21108,
  "IP": 8578,
  "IR": 6166,
  "IRE": 17472,
  "IRIT": 26813,
  "IS": 2773,
  "ISBN": 18702,
  "ISE": 24715,
  "ISH": 18037,
  "ISS": 11941,
  "ISSIONS": 16943,
  "IST": 10412,
  "IT": 3118,
  "ITE": 24436,
  "ITH": 10218,
  "ITION": 21497,
  "ITY": 11973,
  "IV": 5677,
  "IVE": 12757,
  "IX": 16881,
  "IZ": 16317,
  "Ian": 17844,
  "Id": 21672,
  "If": 1593,
  "Ign": 19949,
  "Ignoring": 27119,
  "Ill": 29923,
  "Im": 9434,
  "Imagine": 24203,
  "Immediately": 24837,
  "Imp": 18963,
  "In": 1375,
  "Ind": 8084,
  "Indeed": 12067,
  "Inside": 12267,
  "Inst": 9377,
  "Instead": 12506,
  "Int": 5314,
  "Inter": 12666,
  "Interest": 18594,
  "Interesting": 21786,
  "Interpretation": 19246,
  "Intonation": 8417,
  "Introduction": 29955,
  "Ir": 27054,
  "Is": 2115,
  "Isa": 12455,
  "Isaac": 28705,
  "Isaiah": 18452,
  "Islam": 24636,
  "Isn": 12163,
  "Israel": 29409,
  "It": 796,
  "Its": 19874,
  "J": 46,
  "JV": 13770,
  "Ja": 24413,
  "Jac": 10966,
  "Jace": 26565,
  "Jack": 6152,
  "Jackie": 29504,
  "Jackson": 25527,
  "Jacob": 14832,
  "Jade": 28508,
  "Jake": 10578,
  "Jam": 15916,
  "James": 8376,
  "Jamie": 20155,
  "Jan": 11963,
  "Jane": 15041,
  "Janet": 28746,
  "January": 29798,
  "Jared": 25100,
  "Jason": 12354,
  "Jay": 13384,
  "Je": 14238,
  "Jean": 23214,
  "Jeff": 15921,
  "Jen": 16876,
  "Jenn": 18227,
  "Jennifer": 23460,
  "Jenny": 18233,
  "Jer": 19943,
  "Jere": 15204,
  "Jeremiah": 27444,
  "Jeremy": 20949,
  "Jerry": 25203,
  "Jess": 12241,
  "Jesse": 23123,
  "Jessica": 19878,
  "Jesus": 6442,
  "Jew": 23216,
  "Jill": 24599,
  "Jim": 9525,
  "Jimmy": 18347,
  "Jinks": 17391,
  "Jo": 8825,
  "Job": 29450,
  "Joe": 12969,
  "Joey": 27823,
  "John": 4413,
  "Johnny": 16581,
  "Jon": 10172,
  "Jonathan": 22446,
  "Jordan": 29344,
  "Jose": 15456,
  "Joseph": 17478,
  "Josh": 11633,
  "Joshua": 19969,
  "Jour": 29319,
  "Joy": 28336,
  "Jud": 21410,
  "Jul": 9111,
  "Julia": 19235,
  "Julian": 28586,
  "Julie": 24896,
  "July": 26173,
  "June": 22689,
  "Just": 2477,
  "Justin": 24282,
  "K": 47,
  "KE": 25473,
  "KJV": 17955,
  "KK": 20099,
  "Ka": 28300,
  "Kai": 28717,
  "Kar": 17480,
  "Kara": 29360,
  "Karen": 22551,
  "Kat": 10442,
  "Kate": 15005,
  "Katie": 22347,
  "Kay": 15703,
  "Ke": 6546,
  "Keep": 9612,
  "Kelly": 21436,
  "Ken": 12245,
  "Kenzie": 26432,
  "Kevin": 18827,
  "Kill": 22619,
  "Kim": 15544,
  "Kimberly": 27824,
  "Kind": 24226,
  "King": 14200,
  "Kn": 13362,
  "Know": 20554,
  "Knowing": 18949,
  "Krist": 20085,
  "Ky": 17917,
  "Kyle": 17805,
  "L": 48,
  "LA": 17974,
  "LC": 14961,
  "LD": 14565,
  "LE": 4705,
  "LL": 20524,
  "LY": 7082,
  "La": 12276,
  "Ladies": 24909,
  "Lady": 15580,
  "Lance": 15555,
  "Land": 27887,
  "Larry": 25149,
  "Last": 12711,
  "Later": 10847,
  "Laur": 18274,
  "Laura": 21302,
  "Law": 24136,
  "Lay": 22938,
  "Le": 4942,
  "Lead": 25661,
  "Leah": 29284,
  "Lear": 23915,
  "Leave": 12747,
  "Leaving": 25665,
  "Lee": 21487,
  "Leg": 28981,
  "Leo": 27159,
  "Leon": 22556,
  "Les": 26138,
  "Less": 22722,
  "Let": 2410,
  "Lev": 20757,
  "Lex": 26702,
  "Li": 21847,
  "Liam": 19385,
  "Lie": 19887,
  "Lieutenant": 24317,
  "Life": 12885,
  "Light": 16659,
  "Like": 4998,
  "Lil": 28073,
  "Lily": 20073,
  "Linda": 24305,
  "Lisa": 20652,
  "Listen": 8453,
  "Little": 15525,
  "Living": 28929,
  "Liz": 26643,
  "Lo": 27113,
  "Logan": 21932,
  "Long": 15373,
  "Look": 4280,
  "Looking": 10276,
  "Looks": 11538,
  "Lor": 22523,
  "Lord": 9661,
  "Lou": 13865,
  "Louis": 23011,
  "Love": 10079,
  "Luc": 8186,
  "Lucas": 22618,
  "Luckily": 28414,
  "Lucky": 24842,
  "Lucy": 16762,
  "Luke": 9280,
  "Ly": 16517,
  "Lyn": 25696,
  "M": 49,
  "MA": 13774,
  "MAN": 24953,
  "MB": 23981,
  "MC": 29991,
  "ME": 14207,
  "MENT": 16047,
  "MM": 21687,
  "MP": 13498,
  "MR": 28214,
  "MS": 10360,
  "MT": 20760,
  "MY": 16153,
  "Ma": 11134,
  "Mac": 15663,
  "Mack": 29771,
  "Mad": 10925,
  "Mag": 8901,
  "Maggie": 20056,
  "Magic": 13523,
  "Major": 24296,
  "Make": 11683,
  "Making": 23689,
  "Mal": 12815,
  "Mama": 23007,
  "Man": 7556,
  "Many": 9418,
  "Mar": 4980,
  "Marc": 12112,
  "March": 24144,
  "Marcus": 15684,
  "Marg": 23982,
  "Margaret": 26003,
  "Maria": 19339,
  "Marie": 20911,
  "Mark": 8072,
  "Mars": 20096,
  "Mart": 10572,
  "Martin": 18388,
  "Mary": 8648,
  "Mason": 25293,
  "Master": 15648,
  "Mat": 18367,
  "Matt": 6444,
  "Matthew": 9905,
  "Max": 9787,
  "May": 6259,
  "Mayan": 28458,
  "Maybe": 3359,
  "Mc": 15847,
  "Me": 4072,
  "Meanwhile": 15542,
  "Med": 10326,
  "Media": 15194,
  "Meg": 29543,
  "Megan": 29161,
  "Mel": 11292,
  "Melissa": 23832,
  "Mem": 23895,
  "Men": 14202,
  "Mer": 15237,
  "Merc": 28210,
  "Mess": 26185,
  "Met": 24287,
  "Methods": 19521,
  "Mia": 21056,
  "Mic": 6480,
  "Michael": 8446,
  "Michelle": 23590,
  "Mid": 25926,
  "Might": 23568,
  "Mike": 10184,
  "Mil": 23298,
  "Mill": 20319,
  "Min": 15496,
  "Mind": 19781,
  "Mine": 27934,
  "Mir": 16438,
  "Miss": 10161,
  "Mister": 28051,
  "Mmm": 16492,
  "Mo": 20248,
  "Mod": 22468,
  "Molly": 23913,
  "Mom": 6727,
  "Mon": 13817,
  "Monday": 26494,
  "Mor": 9678,
  "More": 7193,
  "Morgan": 21544,
  "Morning": 19065,
  "Most": 7694,
  "Mother": 12738,
  "Move": 20229,
  "Moving": 23496,
  "Mr": 3935,
  "Mrs": 8999,
  "Ms": 12728,
  "Mu": 19567,
  "Much": 18209,
  "Mum": 21089,
  "Mur": 21015,
  "Mus": 12576,
  "Muse": 19788,
  "Music": 22242,
  "Muslim": 22962,
  "Must": 18191,
  "My": 1559,
  "N": 50,
  "NA": 3784,
  "NAs": 20462,
  "ND": 4024,
  "NE": 16972,
  "NESS": 28917,
  "NG": 24449,
  "NING": 17636,
  "NN": 19716,
  "NO": 20260,
  "NOT": 25598,
  "NOW": 23050,
  "NS": 28288,
  "NT": 23248,
  "NY": 25853,
  "Na": 18361,
  "Nah": 13590,
  "Name": 23479,
  "Nancy": 27814,
  "Narr": 28982,
  "Nat": 12124,
  "Nate": 25474,
  "Nathan": 15836,
  "National": 23586,
  "Naw": 25941,
  "Nay": 28909,
  "Ne": 7887,
  "Need": 20637,
  "Neg": 20151,
  "Negative": 22671,
  "Neil": 23251,
  "Neither": 14045,
  "Never": 7247,
  "Nevertheless": 26066,
  "New": 8521,
  "Next": 10403,
  "Nic": 16709,
  "Nice": 10250,
  "Nich": 29443,
  "Nick": 11258,
  "Nicole": 25806,
  "Night": 19624,
  "Nik": 15655,
  "Nikki": 28864,
  "Nine": 26789,
  "No": 1079,
  "Noah": 23518,
  "Nobody": 13986,
  "Non": 22341,
  "None": 11996,
  "Nonsense": 28315,
  "Nope": 12490,
  "Nor": 19330,
  "Normally": 29155,
  "North": 29680,
  "Not": 1818,
  "Note": 16108,
  "Nothing": 5455,
  "Nove": 24685,
  "November": 29593,
  "Now": 2220,
  "Number": 14355,
  "Numbers": 20041,
  "O": 51,
  "OB": 11693,
  "OC": 8481,
  "OCK": 16755,
  "OD": 4034,
  "ODY": 24780,
  "OE": 28017,
  "OF": 20069,
  "OG": 13556,
  "OH": 18595,
  "OK": 6637,
  "OL": 5411,
  "OLD": 18230,
  "OLE": 27809,
  "OLL": 19806,
  "OM": 3739,
  "OME": 25336,
  "ON": 1985,
  "OND": 23040,
  "ONE": 13405,
  "ONG": 12755,
  "ONS": 27185,
  "ONT": 20482,
  "OO": 11972,
  "OOD": 11454,
  "OOK": 17056,
  "OOM": 25353,
  "OP": 6883,
  "OPE": 29010,
  "OR": 2205,
  "ORD": 4506,
  "ORE": 16352,
  "ORT": 15973,
  "ORY": 26024,
  "OS": 6221,
  "OSE": 16466,
  "OSED": 29686,
  "OSS": 24633,
  "OST": 13866,
  "OT": 3913,
  "OTH": 19123,
  "OTHER": 23799,
  "OTT": 24942,
  "OU": 2875,
  "OUG": 19816,
  "OUGH": 28389,
  "OUND": 13053,
  "OUR": 12088,
  "OUS": 12540,
  "OUT": 17601,
  "OV": 8431,
  "OVE": 18122,
  "OVER": 25577,
  "OW": 4813,
  "OWER": 28961,
  "OWING": 21125,
  "OWN": 12983,
  "OY": 23613,
  "Ob": 10810,
  "Obviously": 19703,
  "Oct": 20076,
  "October": 26033,
  "Of": 3041,
  "Off": 19158,
  "Offic": 23683,
  "Officer": 29841,
  "Oh": 1434,
  "Ok": 8558,
  "Okay": 2737,
  "Ol": 12405,
  "Old": 17042,
  "Oliver": 24295,
  "Olivia": 24669,
  "On": 2707,
  "Once": 4774,
  "One": 3015,
  "Only": 6504,
  "Ooh": 28743,
  "Open": 14225,
  "Or": 4730,
  "Os": 24256,
  "Other": 10750,
  "Ouch": 24589,
  "Our": 5125,
  "Out": 8513,
  "Outside": 16544,
  "Over": 9152,
  "Ow": 26179,
  "P": 52,
  "PA": 15692,
  "PB": 28311,
  "PC": 14729,
  "PCR": 26534,
  "PD": 14033,
  "PE": 14703,
  "PEATED": 28587,
  "PER": 16506,
  "PH": 26450,
  "PI": 26627,
  "PK": 22342,
  "PL": 10990,
  "PM": 23279,
  "PO": 23396,
  "PP": 12890,
  "PR": 10911,
  "PS": 9571,
  "PT": 14571,
  "PV": 27575,
  "Pa": 22326,
  "Page": 29985,
  "Pam": 28845,
  "Pan": 26973,
  "Par": 14970,
  "Part": 8569,
  "Particip": 16325,
  "Participant": 16708,
  "Pass": 28029,
  "Passed": 21474,
  "Pat": 10229,
  "Patrick": 22263,
  "Paul": 8083,
  "Pe": 6690,
  "Peace": 24619,
  "People": 8972,
  "Per": 4745,
  "Perfect": 20029,
  "Perhaps": 6342,
  "Person": 21216,
  "Pet": 18214,
  "Pete": 22953,
  "Peter": 11067,
  "Ph": 8349,
  "Phil": 17799,
  "Philipp": 28002,
  "Pho": 29179,
  "Phoenix": 29730,
  "Phone": 24371,
  "Pier": 29907,
  "Pl": 8325,
  "Plan": 17382,
  "Play": 28276,
  "Ple": 25179,
  "Please": 3870,
  "Plus": 27628,
  "Po": 25155,
  "Pol": 21794,
  "Poor": 19625,
  "Port": 29339,
  "Power": 26784,
  "Pr": 11060,
  "Pray": 23960,
  "Pre": 15127,
  "Pres": 16444,
  "President": 26381,
  "Pretty": 18684,
  "Pri": 24245,
  "Prin": 27503,
  "Prince": 25327,
  "Pro": 5685,
  "Probably": 12133,
  "Prof": 19861,
  "Professor": 24517,
  "Prom": 22336,
  "Promise": 28566,
  "Prot": 28331,
  "Proverbs": 22270,
  "Ps": 20606,
  "Psalm": 16279,
  "Psych": 19493,
  "Published": 21187,
  "Pulling": 25350,
  "Pur": 25137,
  "Put": 11340,
  "Pythagorean": 18586,
  "Q": 53,
  "QU": 12659,
  "Qu": 5141,
  "Que": 21800,
  "Queen": 26115,
  "Question": 11843,
  "Questioner": 13777,
  "Quick": 29294,
  "Quickly": 25269,
  "Quiet": 24351,
  "Quinn": 29921,
  "Quite": 19627,
  "Qur": 13622,
  "R": 54,
  "RA": 7058,
  "RAF": 26656,
  "RAS": 24377,
  "RAY": 18063,
  "RE": 2423,
  "READ": 17841,
  "REAT": 23551,
  "RED": 25205,
  "REE": 16594,
  "RI": 5142,
  "RIF": 10254,
  "RIG": 27111,
  "RNA": 13430,
  "RR": 16905,
  "RY": 24820,
  "Ra": 17291,
  "Rac": 24739,
  "Rachel": 14775,
  "Rad": 27145,
  "Rain": 29896,
  "Ram": 26148,
  "Ran": 27464,
  "Rand": 26571,
  "Rather": 27830,
  "Raven": 29559,
  "Ray": 15254,
  "Re": 2885,
  "Reaching": 25453,
  "Read": 14451,
  "Ready": 16733,
  "Real": 18959,
  "Really": 6675,
  "Reb": 19725,
  "Rebecca": 20722,
  "Rec": 15807,
  "Red": 11061,
  "Redacted": 21299,
  "Ref": 21804,
  "Reg": 12326,
  "Rel": 10374,
  "Relax": 19598,
  "Rem": 7555,
  "Remember": 9437,
  "Ren": 19459,
  "Rep": 12668,
  "Reply": 26351,
  "Res": 9992,
  "Rest": 28404,
  "Results": 17109,
  "Ret": 13204,
  "Return": 20030,
  "Rev": 16371,
  "Revelation": 17070,
  "Ric": 13411,
  "Richard": 14554,
  "Rick": 20556,
  "Rid": 23636,
  "Right": 5253,
  "Riley": 22916,
  "Ro": 8917,
  "Rob": 11966,
  "Robert": 11283,
  "Rock": 26871,
  "Rod": 26186,
  "Rog": 16189,
  "Roger": 17778,
  "Roll": 28577,
  "Rom": 11608,
  "Roman": 24652,
  "Romans": 15172,
  "Rome": 24414,
  "Ron": 12176,
  "Rose": 14705,
  "Row": 29387,
  "Roy": 28526,
  "Rub": 23949,
  "Run": 18672,
  "Running": 29163,
  "Russ": 28013,
  "Ruth": 27672,
  "Ry": 21028,
  "Ryan": 15788,
  "S": 55,
  "SA": 13243,
  "SC": 6534,
  "SCC": 25911,
  "SCLC": 22582,
  "SD": 20774,
  "SE": 9816,
  "SF": 9132,
  "SH": 11739,
  "SI": 21147,
  "SL": 23703,
  "SM": 18820,
  "SO": 16053,
  "SP": 11878,
  "SR": 21130,
  "SS": 10409,
  "ST": 4456,
  "SU": 18335,
  "SW": 22706,
  "Sa": 23070,
  "Sab": 27122,
  "Sad": 17810,
  "Sal": 17488,
  "Sally": 20597,
  "Sam": 5766,
  "Samantha": 25385,
  "Same": 19600,
  "Samuel": 27650,
  "San": 21734,
  "Sandy": 28572,
  "Sar": 9325,
  "Sara": 17047,
  "Sarah": 10699,
  "Sat": 11211,
  "Satan": 28367,
  "Saturday": 25694,
  "Sav": 25636,
  "Save": 8053,
  "Say": 12052,
  "Sc": 6458,
  "Scar": 22402,
  "Sch": 22903,
  "Scott": 18653,
  "Se": 5926,
  "Sean": 17895,
  "Seb": 18179,
  "Sebastian": 24401,
  "Sec": 10599,
  "Second": 14902,
  "Section": 23563,
  "See": 5286,
  "Seeing": 17093,
  "Seems": 23014,
  "Sel": 22795,
  "Self": 18887,
  "Sen": 26843,
  "Send": 26211,
  "Sent": 22112,
  "September": 26670,
  "Ser": 10193,
  "Sergeant": 27131,
  "Seriously": 16715,
  "Serv": 27107,
  "Set": 21143,
  "Seth": 18741,
  "Seven": 19684,
  "Several": 14198,
  "Sex": 26731,
  "Sh": 3263,
  "Sha": 8074,
  "Shaking": 24273,
  "Shall": 16518,
  "Shan": 16289,
  "Shane": 28943,
  "Shar": 18861,
  "She": 840,
  "Sher": 26557,
  "Shh": 26057,
  "Shhh": 28328,
  "Shit": 9530,
  "Sho": 23098,
  "Short": 18691,
  "Shortly": 28896,
  "Should": 10036,
  "Shouldn": 26769,
  "Show": 18600,
  "Shut": 10456,
  "Sign": 28197,
  "Sil": 10735,
  "Silence": 17973,
  "Sim": 9178,
  "Simon": 14534,
  "Since": 7432,
  "Sir": 7834,
  "Sister": 27239,
  "Sit": 15188,
  "Sitting": 19916,
  "Six": 14452,
  "Sk": 22431,
  "Sky": 25244,
  "Sl": 15353,
  "Sleep": 22069,
  "Slow": 13561,
  "Slowly": 16117,
  "Sm": 6916,
  "Small": 27640,
  "Smashwords": 13768,
  "Smiling": 25662,
  "Smith": 25793,
  "Sn": 24961,
  "So": 1320,
  "Sol": 23269,
  "Solution": 22737,
  "Some": 3714,
  "Somebody": 26071,
  "Somehow": 19915,
  "Someone": 8965,
  "Somet": 4954,
  "Something": 6836,
  "Sometimes": 9936,
  "Somewhere": 25556,
  "Son": 15427,
  "Soon": 11381,
  "Soph": 16776,
  "Sophia": 29350,
  "Sophie": 23887,
  "Sorry": 4638,
  "Sounds": 9857,
  "Source": 27016,
  "Sp": 7218,
  "Spe": 12903,
  "Speak": 28127,
  "Speaking": 18811,
  "Spec": 22632,
  "Special": 28867,
  "Squ": 27415,
  "St": 1926,
  "Stan": 19067,
  "Stand": 20574,
  "Standing": 17734,
  "Star": 17190,
  "Start": 18005,
  "Stay": 11281,
  "Ste": 7700,
  "Stella": 27010,
  "Step": 12603,
  "Stephen": 25090,
  "Stepping": 29575,
  "Steve": 14174,
  "Steven": 26151,
  "Still": 7262,
  "Stone": 18745,
  "Stop": 7284,
  "Str": 22937,
  "Strange": 24729,
  "Stu": 20878,
  "Stud": 29562,
  "Stupid": 27272,
  "Su": 22385,
  "Sub": 16877,
  "Such": 13728,
  "Suddenly": 7654,
  "Sun": 19247,
  "Sund": 25324,
  "Sunday": 27015,
  "Super": 25159,
  "Supp": 21704,
  "Sur": 7086,
  "Surah": 21548,
  "Surat": 11564,
  "Sure": 4326,
  "Surely": 16414,
  "Sus": 14274,
  "Susan": 17536,
  "Suz": 29958,
  "Sw": 18110,
  "Sweet": 17388,
  "Sy": 14577,
  "T": 56,
  "TA": 22364,
  "TC": 20205,
  "TE": 13951,
  "TEEN": 25867,
  "TER": 3468,
  "TH": 5807,
  "THE": 8051,
  "THER": 28185,
  "TING": 15136,
  "TM": 19275,
  "TO": 15679,
  "TOR": 27990,
  "TR": 11023,
  "TS": 13483,
  "TT": 21711,
  "TY": 16661,
  "Ta": 26433,
  "Table": 16700,
  "Take": 6424,
  "Taking": 13579,
  "Talk": 21479,
  "Tam": 24646,
  "Tan": 25032,
  "Tar": 17828,
  "Tara": 25329,
  "Taylor": 26298,
  "Te": 8382,
  "Tears": 18718,
  "Ted": 21870,
  "Tell": 5518,
  "Tem": 25861,
  "Ten": 13670,
  "Ter": 14649,
  "Teresa": 26366,
  "Tess": 28567,
  "Th": 1103,
  "Than": 2187,
  "Thank": 3018,
  "Thanks": 4238,
  "That": 1140,
  "The": 494,
  "Their": 9007,
  "Then": 2097,
  "There": 1473,
  "Therefore": 15562,
  "These": 5770,
  "They": 1367,
  "Things": 15007,
  "Think": 11784,
  "Thinking": 23417,
  "Third": 26812,
  "Thirty": 25663,
  "This": 1420,
  "Thomas": 13094,
  "Thor": 22132,
  "Those": 6913,
  "Thou": 29930,
  "Though": 9517,
  "Thought": 21185,
  "Three": 8511,
  "Through": 11752,
  "Throughout": 29016,
  "Thus": 15159,
  "Tim": 12580,
  "Time": 9250,
  "Tina": 26412,
  "Tis": 24773,
  "To": 2969,
  "Toby": 28722,
  "Today": 10619,
  "Todd": 28607,
  "Together": 28218,
  "Tom": 5815,
  "Tommy": 19942,
  "Tomorrow": 17816,
  "Ton": 20050,
  "Tonight": 21037,
  "Tony": 15949,
  "Too": 9993,
  "Tor": 21965,
  "Tr": 6771,
  "Tra": 14653,
  "Trans": 19232,
  "Tre": 15731,
  "Trevor": 25584,
  "Tristan": 18656,
  "True": 12829,
  "Trust": 16353,
  "Truth": 23453,
  "Try": 13631,
  "Trying": 23053,
  "Tube": 21775,
  "Tuesday": 28589,
  "Turn": 17606,
  "Turning": 15442,
  "Tw": 9898,
  "Twenty": 16980,
  "Two": 5536,
  "Ty": 11112,
  "Tyler": 19226,
  "U": 57,
  "UAL": 19929,
  "UB": 13161,
  "UC": 12070,
  "UCK": 16895,
  "UD": 14071,
  "UE": 15892,
  "UG": 26027,
  "UGG": 27504,
  "UH": 23752,
  "UL": 6596,
  "ULL": 21459,
  "ULT": 22831,
  "UM": 9542,
  "UN": 8956,
  "UP": 20353,
  "UR": 6158,
  "URE": 13449,
  "URR": 21165,
  "US": 5862,
  "USE": 24720,
  "UST": 10443,
  "USTED": 24106,
  "USTING": 29178,
  "UT": 6622,
  "UTH": 22150,
  "UTHOR": 28815,
  "UU": 22477,
  "Ugh": 21029,
  "Uh": 7245,
  "Um": 9104,
  "Umm": 23961,
  "Un": 4006,
  "Uncle": 18459,
  "Under": 11468,
  "Unfortunately": 13191,
  "Unfriendly": 29420,
  "University": 15736,
  "Unless": 16159,
  "Unlike": 24471,
  "Until": 14220,
  "Up": 10115,
  "Upon": 19399,
  "Us": 18647,
  "Use": 21211,
  "Using": 23370,
  "Usually": 29270,
  "V": 58,
  "VA": 22254,
  "VD": 17498,
  "VE": 17030,
  "VEN": 19119,
  "VER": 10367,
  "VI": 29427,
  "VU": 28080,
  "Val": 14119,
  "Van": 23332,
  "Var": 26174,
  "Ver": 16290,
  "Verse": 27006,
  "Very": 6681,
  "Victor": 17158,
  "Victoria": 28690,
  "Vin": 18903,
  "Vincent": 20717,
  "Violet": 26899,
  "Vir": 26243,
  "Vis": 23132,
  "Viv": 27035,
  "Vol": 22824,
  "W": 59,
  "WA": 28608,
  "WARD": 20270,
  "WAY": 29352,
  "WE": 21654,
  "WH": 16263,
  "WHAT": 28594,
  "WING": 15643,
  "WO": 21243,
  "WS": 24435,
  "Wa": 25871,
  "Wait": 5790,
  "Wake": 24467,
  "Wal": 24654,
  "Walking": 18925,
  "Want": 16202,
  "War": 16803,
  "Was": 6634,
  "Watch": 14928,
  "Watching": 27939,
  "Water": 22864,
  "Way": 21982,
  "We": 949,
  "Wed": 27305,
  "Welcome": 11486,
  "Well": 1438,
  "Were": 13570,
  "West": 23659,
  "Wh": 9172,
  "What": 842,
  "Whatever": 8348,
  "When": 1604,
  "Whenever": 25677,
  "Where": 2718,
  "Whether": 19778,
  "Which": 7849,
  "While": 5358,
  "White": 18431,
  "Who": 2748,
  "Whoa": 14731,
  "Whoever": 21609,
  "Why": 1810,
  "Wil": 21064,
  "Will": 4328,
  "William": 11628,
  "Win": 22509,
  "Winger": 28095,
  "With": 2503,
  "Within": 14224,
  "Without": 8368,
  "Wolf": 27393,
  "Women": 25697,
  "Won": 24535,
  "Wonder": 23833,
  "Wor": 20335,
  "Word": 26928,
  "Words": 29662,
  "Work": 25615,
  "World": 23027,
  "Would": 5917,
  "Wouldn": 22522,
  "Wow": 6985,
  "Wr": 16434,
  "X": 60,
  "XT": 20122,
  "XX": 23319,
  "Y": 61,
  "YOU": 26696,
  "Ya": 18404,
  "Yah": 29663,
  "Ye": 18324,
  "Yea": 22457,
  "Yeah": 2001,
  "Year": 22696,
  "Yep": 11301,
  "Yes": 1338,
  "Yesterday": 26632,
  "Yet": 9970,
  "Yo": 25446,
  "You": 513,
  "Young": 19134,
  "Your": 3121,
  "Yup": 22371,
  "Z": 62,
  "ZZ": 17176,
  "Zach": 22392,
  "Ze": 22405,
  "[": 63,
  "\\": 64,
  "\\-": 3863,
  "\\--": 11257,
  "]": 65,
  "](": 29756,
  "],": 12189,
  "].": 9672,
  "]:": 13431,
  "^": 66,
  "_": 67,
  "_!": 18051,
  "_!\"": 18636,
  "_\"": 8802,
  "_**": 11803,
  "_.": 2312,
  "_.\"": 7818,
  "_.,": 24874,
  "_...": 21092,
  "_?": 12697,
  "_?\"": 12545,
  "__": 1785,
  "____": 3180,
  "________": 9579,
  "________________": 18482,
  "`": 68,
  "a": 69,
  "aa": 9391,
  "aaaa": 29597,
  "aah": 15462,
  "aan": 15925,
  "ab": 462,
  "aba": 19963,
  "abama": 15923,
  "abas": 28919,
  "abb": 18960,
  "abe": 16107,
  "abel": 15094,
  "abelle": 17939,
  "abet": 19603,
  "abetes": 22030,
  "abeth": 4987,
  "abil": 21281,
  "abilities": 11066,
  "ability": 3332,
  "able": 644,
  "abled": 11174,
  "ables": 3496,
  "abling": 20978,
  "ablo": 21697,
  "ably": 1165,
  "abol": 12624,
  "abolic": 21004,
  "abor": 5418,
  "about": 13642,
  "abouts": 15421,
  "abs": 12653,
  "abul": 17426,
  "abulary": 20314,
  "aby": 12486,
  "ac": 317,
  "aca": 29785,
  "acc": 9626,
  "accept": 18183,
  "acceptable": 21970,
  "access": 26712,
  "acco": 14275,
  "ace": 506,
  "aced": 1317,
  "acement": 10752,
  "acent": 12172,
  "acer": 18589,
  "aces": 1706,
  "aceutical": 23326,
  "acey": 8821,
  "ach": 649,
  "acha": 10862,
  "achable": 27127,
  "achary": 18545,
  "ache": 5134,
  "ached": 1208,
  "achel": 4858,
  "achelor": 21620,
  "acher": 2669,
  "achers": 21596,
  "aches": 3864,
  "achete": 28309,
  "achi": 14796,
  "aching": 2071,
  "achment": 17000,
  "acht": 13372,
  "achus": 18777,
  "achusetts": 23395,
  "aci": 22288,
  "acia": 26492,
  "acie": 15499,
  "acies": 16572,
  "acing": 2210,
  "acion": 12788,
  "acious": 8143,
  "aciously": 17490,
  "acity": 6676,
  "ack": 407,
  "acked": 1936,
  "acker": 23133,
  "acking": 10811,
  "acks": 5247,
  "acle": 4475,
  "acles": 6200,
  "aco": 18511,
  "acon": 7381,
  "acre": 19977,
  "act": 611,
  "acted": 14038,
  "acter": 9227,
  "actic": 11850,
  "acting": 23382,
  "action": 2725,
  "actions": 18203,
  "active": 13059,
  "actly": 9092,
  "actor": 12956,
  "actory": 14955,
  "acts": 12526,
  "acular": 12796,
  "acus": 28993,
  "acy": 2361,
  "ad": 340,
  "ada": 4335,
  "adan": 23299,
  "adar": 18984,
  "adas": 22116,
  "adays": 18477,
  "add": 8696,
  "adder": 19178,
  "addled": 18670,
  "addling": 26183,
  "ade": 650,
  "aded": 2429,
  "adel": 11411,
  "adelphia": 16537,
  "adem": 6094,
  "aden": 8306,
  "adequ": 16519,
  "ader": 11383,
  "aders": 12858,
  "ades": 3119,
  "adi": 16119,
  "adia": 21955,
  "adian": 13027,
  "adic": 23371,
  "adies": 16246,
  "adin": 18674,
  "ading": 3245,
  "adise": 8603,
  "adium": 13898,
  "ado": 5830,
  "ador": 8993,
  "ados": 14982,
  "ads": 4831,
  "ady": 784,
  "adys": 29823,
  "ae": 5207,
  "ael": 11322,
  "af": 2326,
  "afe": 8891,
  "aff": 2544,
  "affe": 18243,
  "affected": 24058,
  "afia": 24169,
  "after": 7390,
  "ag": 547,
  "aga": 15968,
  "again": 17406,
  "agan": 7386,
  "agar": 22137,
  "age": 665,
  "aged": 1874,
  "agement": 14814,
  "agen": 18774,
  "ager": 2834,
  "agers": 6973,
  "ages": 1947,
  "agg": 7429,
  "agged": 6792,
  "agger": 5537,
  "aggering": 18260,
  "aggers": 16576,
  "agging": 11047,
  "aghetti": 23994,
  "agi": 26367,
  "agine": 12073,
  "aging": 4925,
  "agle": 9213,
  "agles": 18298,
  "agn": 6267,
  "agne": 12006,
  "agnetic": 19653,
  "ago": 7098,
  "agon": 4948,
  "agram": 13971,
  "agraph": 13973,
  "ags": 19018,
  "agu": 16447,
  "aguar": 27143,
  "ague": 3948,
  "agues": 8938,
  "ah": 781,
  "ahl": 11670,
  "ahn": 19734,
  "aho": 26806,
  "ahr": 9583,
  "ahrree": 16424,
  "ahu": 25966,
  "ai": 2528,
  "aid": 1693,
  "aige": 12462,
  "aign": 8270,
  "ail": 896,
  "ailable": 15086,
  "ailed": 8091,
  "ailing": 10697,
  "ails": 2635,
  "aim": 1879,
  "ain": 402,
  "aina": 19897,
  "aine": 6079,
  "ained": 1285,
  "aines": 27156,
  "aining": 2380,
  "ains": 1897,
  "aint": 3083,
  "ainted": 8771,
  "aints": 26698,
  "air": 954,
  "aira": 29120,
  "aire": 15051,
  "aired": 11278,
  "airs": 1877,
  "airy": 20589,
  "ais": 20144,
  "ait": 2932,
  "aith": 17476,
  "aius": 24523,
  "aj": 1850,
  "ajest": 7380,
  "ajestic": 16146,
  "ajesty": 9926,
  "ajj": 29078,
  "ajor": 2701,
  "ak": 570,
  "aka": 10503,
  "akable": 14865,
  "ake": 517,
  "aked": 2480,
  "aken": 1487,
  "akened": 12349,
  "aker": 4694,
  "akers": 9364,
  "akes": 1292,
  "akh": 26215,
  "aki": 12296,
  "akin": 21274,
  "aking": 826,
  "ako": 22987,
  "akov": 28723,
  "aks": 5679,
  "aku": 22515,
  "aky": 16204,
  "al": 321,
  "ala": 6062,
  "alai": 16429,
  "alaihi": 26903,
  "ald": 2647,
  "alda": 29064,
  "ale": 1095,
  "aleb": 7828,
  "aled": 2356,
  "alem": 6360,
  "alend": 13143,
  "alendar": 14445,
  "aler": 17984,
  "ales": 4192,
  "aley": 14761,
  "ali": 8400,
  "alia": 12330,
  "alian": 9229,
  "alid": 18310,
  "alie": 9617,
  "alin": 17361,
  "aling": 2600,
  "alion": 17007,
  "ality": 2317,
  "alk": 3290,
  "alker": 10033,
  "alking": 12255,
  "all": 369,
  "alla": 22505,
  "allas": 12785,
  "alle": 15459,
  "alled": 3852,
  "alley": 4810,
  "alleys": 22537,
  "allic": 12201,
  "alling": 11638,
  "allion": 24391,
  "alls": 21235,
  "ally": 485,
  "alm": 1803,
  "almon": 20435,
  "almost": 27878,
  "alo": 13327,
  "alog": 17800,
  "alon": 18974,
  "alous": 5584,
  "als": 1276,
  "also": 22645,
  "alt": 4941,
  "alted": 18239,
  "alth": 1917,
  "although": 22897,
  "alties": 27612,
  "alty": 14981,
  "alu": 6228,
  "aluable": 27318,
  "always": 25356,
  "aly": 4865,
  "alysis": 14781,
  "alyst": 22271,
  "am": 362,
  "ama": 3047,
  "aman": 16044,
  "amar": 21008,
  "amas": 14094,
  "amb": 3170,
  "amble": 13014,
  "ambling": 12413,
  "amboo": 22603,
  "ame": 525,
  "amed": 2551,
  "amel": 22121,
  "ament": 4219,
  "amental": 8942,
  "amente": 25564,
  "aments": 26804,
  "amer": 18177,
  "ames": 1501,
  "ami": 10289,
  "amic": 18287,
  "amiliar": 11470,
  "amily": 19611,
  "amin": 7529,
  "amine": 18196,
  "aming": 4148,
  "amins": 28082,
  "amm": 6209,
  "amma": 16472,
  "amn": 4492,
  "amon": 12360,
  "amous": 14997,
  "amp": 1401,
  "ampa": 27532,
  "amped": 7070,
  "ampered": 19637,
  "amps": 8342,
  "ams": 6019,
  "amus": 20525,
  "amy": 16382,
  "an": 294,
  "ana": 2496,
  "anas": 21109,
  "anc": 1261,
  "ance": 696,
  "anced": 1827,
  "ancer": 6390,
  "ancers": 15087,
  "ances": 2332,
  "anch": 5242,
  "anche": 11721,
  "anched": 26266,
  "anches": 6229,
  "anchester": 28320,
  "anchez": 24964,
  "ancial": 23023,
  "ancies": 21180,
  "ancing": 3311,
  "ancouver": 24209,
  "ancy": 3715,
  "and": 458,
  "anda": 3622,
  "andal": 12686,
  "ande": 18891,
  "ander": 3277,
  "andered": 24118,
  "andering": 20920,
  "anding": 4431,
  "ando": 9471,
  "andra": 6095,
  "andro": 19354,
  "ands": 15881,
  "andy": 4571,
  "ane": 1567,
  "aned": 1781,
  "aneous": 10657,
  "aneously": 8136,
  "anes": 21007,
  "aney": 21230,
  "ang": 833,
  "anga": 24967,
  "ange": 1622,
  "anged": 5087,
  "angel": 10445,
  "anger": 1881,
  "angers": 22926,
  "anges": 20675,
  "anging": 12272,
  "angle": 11104,
  "angled": 16267,
  "angles": 24486,
  "angling": 29119,
  "angs": 9784,
  "angu": 3035,
  "anguage": 21275,
  "angular": 15101,
  "ani": 6667,
  "anic": 17489,
  "anie": 8996,
  "anim": 18880,
  "aning": 3376,
  "anity": 14242,
  "anium": 23249,
  "ank": 1123,
  "anka": 25461,
  "anked": 6648,
  "ankind": 15475,
  "anking": 15634,
  "anks": 13037,
  "anky": 15678,
  "ann": 2796,
  "anna": 4371,
  "annah": 6307,
  "anne": 8939,
  "annel": 26056,
  "anners": 17411,
  "anni": 17510,
  "annie": 21214,
  "annon": 21802,
  "anny": 8392,
  "ano": 7919,
  "anoia": 21111,
  "anor": 7778,
  "another": 25543,
  "anqu": 13549,
  "ans": 661,
  "ansas": 15063,
  "anse": 15603,
  "anson": 28915,
  "answ": 19628,
  "ant": 405,
  "anta": 7336,
  "antage": 4534,
  "ante": 7994,
  "anted": 3640,
  "anth": 14719,
  "antha": 8742,
  "anthrop": 22511,
  "anti": 26434,
  "antic": 4566,
  "antically": 9447,
  "antine": 13096,
  "anting": 14082,
  "antis": 22027,
  "antly": 1945,
  "anto": 23074,
  "anton": 19017,
  "antry": 26861,
  "ants": 1570,
  "anus": 28822,
  "anwhile": 9585,
  "any": 1573,
  "anya": 13235,
  "anyon": 26971,
  "anything": 23828,
  "anza": 29605,
  "ao": 24711,
  "ap": 615,
  "apa": 21566,
  "apan": 5241,
  "ape": 2136,
  "aped": 4141,
  "aper": 4797,
  "apers": 10726,
  "apes": 16681,
  "aph": 7200,
  "aphne": 23406,
  "aping": 6125,
  "aple": 27549,
  "apolis": 22820,
  "apons": 26345,
  "apor": 10936,
  "apore": 23112,
  "app": 1533,
  "apped": 21610,
  "appro": 28408,
  "appropri": 14924,
  "appy": 10512,
  "aps": 4214,
  "apse": 23765,
  "apt": 1418,
  "aptain": 3438,
  "apture": 21382,
  "apy": 10149,
  "aque": 19583,
  "ar": 296,
  "ara": 2100,
  "aran": 24223,
  "arant": 7138,
  "arc": 3553,
  "arcer": 24484,
  "arch": 2064,
  "archy": 11887,
  "arciss": 13505,
  "ard": 459,
  "ardan": 28539,
  "arded": 8811,
  "arden": 3517,
  "ardens": 9772,
  "ardi": 26472,
  "arding": 16784,
  "ardless": 15139,
  "ardo": 15364,
  "ardon": 10533,
  "ards": 1680,
  "are": 562,
  "ared": 777,
  "arek": 13453,
  "arel": 22051,
  "arely": 22138,
  "aren": 5298,
  "arent": 1376,
  "arently": 3633,
  "arer": 9830,
  "arers": 26222,
  "ares": 4662,
  "arest": 15306,
  "aret": 4426,
  "areth": 12485,
  "arett": 12399,
  "arette": 6556,
  "arettes": 13130,
  "arez": 20858,
  "ari": 5430,
  "aria": 13550,
  "ariably": 24761,
  "arian": 5593,
  "arians": 21851,
  "aries": 4640,
  "arily": 3466,
  "arin": 28578,
  "aring": 1115,
  "ario": 8645,
  "arios": 16463,
  "arious": 16598,
  "ariously": 24473,
  "aris": 28626,
  "arity": 16852,
  "arius": 25338,
  "ark": 732,
  "arker": 13576,
  "arkers": 25460,
  "arks": 24736,
  "arl": 4364,
  "arled": 28380,
  "arly": 11290,
  "arm": 3247,
  "armed": 8539,
  "arming": 13148,
  "arms": 9643,
  "arn": 5368,
  "arnation": 15951,
  "aro": 22203,
  "aron": 5390,
  "around": 23644,
  "arr": 1801,
  "arrass": 4107,
  "array": 25567,
  "arrick": 26282,
  "arring": 13961,
  "arris": 24767,
  "arrison": 18506,
  "arrow": 4329,
  "arry": 5643,
  "ars": 1202,
  "arse": 10381,
  "arson": 12121,
  "art": 434,
  "artan": 23977,
  "arted": 5414,
  "arter": 13261,
  "arth": 1423,
  "arthol": 26601,
  "artholomew": 28781,
  "arthy": 17981,
  "artment": 6096,
  "arts": 16155,
  "ary": 780,
  "aryn": 22905,
  "as": 295,
  "asa": 24501,
  "asant": 8587,
  "asc": 4285,
  "ascal": 22328,
  "ascular": 20447,
  "ase": 767,
  "ased": 1409,
  "asel": 22432,
  "aser": 23671,
  "ases": 3877,
  "ash": 1253,
  "asha": 5813,
  "ashed": 2337,
  "ashes": 5924,
  "ashi": 16830,
  "ashing": 2853,
  "ashington": 6404,
  "ashion": 4901,
  "ashri": 13266,
  "ashwords": 7768,
  "ashy": 27880,
  "asi": 19585,
  "asia": 15346,
  "asing": 3831,
  "asingly": 9047,
  "asion": 3210,
  "asionally": 19747,
  "asions": 10122,
  "asis": 10263,
  "asive": 15406,
  "ask": 2601,
  "aska": 14856,
  "asket": 18302,
  "asm": 4091,
  "asma": 11708,
  "asmine": 11188,
  "asms": 22677,
  "ason": 1148,
  "asonable": 22088,
  "asons": 3962,
  "asp": 4150,
  "asped": 6085,
  "asper": 6867,
  "asping": 10338,
  "asps": 27736,
  "ass": 594,
  "assador": 13412,
  "asse": 20125,
  "assed": 8118,
  "asses": 7634,
  "assion": 5878,
  "associ": 25002,
  "associated": 29017,
  "assy": 16186,
  "ast": 487,
  "aste": 11065,
  "asted": 11687,
  "aster": 1654,
  "astern": 11338,
  "asters": 15146,
  "astery": 18021,
  "astian": 8311,
  "astic": 3335,
  "astically": 8404,
  "asting": 7819,
  "astor": 21992,
  "astrous": 21102,
  "asts": 24526,
  "asty": 6768,
  "asure": 2330,
  "asy": 3930,
  "at": 299,
  "ata": 3050,
  "atable": 23525,
  "atar": 15570,
  "atch": 3720,
  "atched": 4747,
  "atches": 14521,
  "atching": 7219,
  "ate": 484,
  "ated": 648,
  "ateful": 23177,
  "ately": 1243,
  "atement": 20916,
  "ater": 1081,
  "ateral": 18081,
  "atered": 20555,
  "aterial": 16499,
  "atern": 21345,
  "aternal": 28097,
  "aternity": 26238,
  "aters": 15708,
  "ates": 1225,
  "ath": 753,
  "atha": 14347,
  "athan": 5580,
  "athe": 26617,
  "athed": 11682,
  "ather": 737,
  "athered": 3750,
  "atherine": 6807,
  "athering": 22609,
  "athetic": 12587,
  "athetically": 29102,
  "athing": 17908,
  "athom": 13679,
  "athon": 14774,
  "athy": 4937,
  "ati": 10010,
  "atiable": 29932,
  "atians": 19293,
  "atic": 2698,
  "atical": 25940,
  "atically": 5836,
  "atican": 22400,
  "atics": 20861,
  "atile": 24224,
  "atin": 8240,
  "ating": 950,
  "ation": 422,
  "ational": 1916,
  "ations": 882,
  "atious": 26685,
  "ativ": 29377,
  "ative": 1448,
  "atively": 8322,
  "atives": 5285,
  "ativity": 17205,
  "ato": 4825,
  "aton": 15518,
  "ator": 2020,
  "atories": 22843,
  "ators": 3943,
  "atory": 4184,
  "atra": 28847,
  "atre": 26213,
  "ats": 1864,
  "atson": 16522,
  "att": 1113,
  "atta": 23902,
  "atter": 4032,
  "attered": 4178,
  "attering": 12833,
  "attle": 2306,
  "attoo": 8060,
  "atum": 25704,
  "ature": 3003,
  "atures": 4404,
  "atus": 11657,
  "au": 713,
  "auc": 16292,
  "aud": 19525,
  "aug": 25052,
  "augh": 10509,
  "aughing": 21329,
  "aught": 1064,
  "aughter": 1863,
  "aughters": 8442,
  "aul": 1983,
  "auld": 17788,
  "auldron": 26750,
  "ault": 5592,
  "aulted": 14560,
  "aur": 2589,
  "aus": 620,
  "ause": 693,
  "aused": 2069,
  "ausible": 20025,
  "ausing": 29938,
  "aut": 1387,
  "author": 29638,
  "autiful": 24725,
  "aux": 10758,
  "av": 841,
  "ava": 8940,
  "avage": 21039,
  "aval": 23837,
  "avan": 10729,
  "ave": 695,
  "aved": 7972,
  "avel": 19210,
  "avement": 10688,
  "aven": 2023,
  "avender": 17754,
  "aver": 9401,
  "avering": 24386,
  "aves": 8145,
  "avier": 11592,
  "avil": 28355,
  "avin": 8139,
  "aving": 4153,
  "avon": 29970,
  "avor": 9427,
  "avy": 18267,
  "aw": 995,
  "awa": 14127,
  "aware": 8211,
  "away": 9242,
  "awed": 17040,
  "awful": 29911,
  "awing": 22289,
  "awn": 9384,
  "aws": 5317,
  "ax": 1269,
  "axies": 22956,
  "axon": 24054,
  "axy": 9952,
  "ay": 329,
  "aya": 10352,
  "ayan": 29850,
  "aybe": 1645,
  "ayed": 6323,
  "ayer": 9760,
  "ayers": 21761,
  "aying": 6696,
  "aylor": 7251,
  "ayne": 29437,
  "ays": 2808,
  "az": 1003,
  "aza": 12790,
  "azar": 11898,
  "azarus": 19109,
  "aze": 5874,
  "azed": 8004,
  "azel": 26054,
  "azer": 19378,
  "azi": 29069,
  "azine": 20828,
  "azing": 9240,
  "azy": 28319,
  "azz": 7713,
  "b": 70,
  "ba": 8246,
  "bable": 20795,
  "bably": 1493,
  "back": 4243,
  "backs": 15897,
  "bad": 18134,
  "bag": 10920,
  "bage": 9329,
  "bags": 28927,
  "bal": 6601,
  "balance": 24786,
  "balanced": 29810,
  "ball": 2972,
  "balls": 12191,
  "ban": 6378,
  "band": 2343,
  "bane": 25241,
  "bank": 21167,
  "bar": 7484,
  "bas": 21760,
  "based": 9341,
  "bat": 13690,
  "bath": 15857,
  "bb": 4027,
  "bbie": 11510,
  "bble": 20349,
  "bbled": 17164,
  "bbles": 20016,
  "bbling": 26635,
  "bby": 18385,
  "be": 836,
  "bean": 19280,
  "bearing": 23380,
  "beat": 8504,
  "beats": 28734,
  "bec": 13618,
  "because": 13202,
  "bed": 1087,
  "bedded": 12454,
  "bee": 22247,
  "before": 17584,
  "being": 10827,
  "beit": 14734,
  "bel": 3215,
  "belie": 5674,
  "belief": 6429,
  "believers": 29819,
  "bell": 8399,
  "belt": 19535,
  "ben": 13964,
  "ber": 683,
  "bered": 2776,
  "berg": 8100,
  "bering": 21900,
  "berly": 11585,
  "berries": 19589,
  "berry": 9244,
  "bers": 7690,
  "bert": 2830,
  "bery": 14323,
  "bes": 6150,
  "best": 26124,
  "bet": 10050,
  "beth": 24311,
  "between": 20782,
  "bey": 20009,
  "bi": 7660,
  "bian": 18794,
  "bid": 9899,
  "bie": 7796,
  "big": 23897,
  "bil": 18362,
  "bin": 14317,
  "bing": 2028,
  "bird": 12147,
  "birds": 23928,
  "birth": 24999,
  "bish": 17415,
  "bishop": 28630,
  "bit": 2896,
  "bl": 3339,
  "black": 14533,
  "ble": 629,
  "bled": 5259,
  "blem": 10762,
  "blems": 28296,
  "bles": 7107,
  "bling": 8622,
  "block": 24425,
  "blog": 28940,
  "blood": 15225,
  "blooded": 29266,
  "blown": 29803,
  "blue": 15645,
  "bly": 18610,
  "bo": 2374,
  "board": 3909,
  "boards": 12935,
  "boat": 15035,
  "bodied": 26284,
  "body": 1958,
  "bohyd": 27505,
  "bolt": 29611,
  "bon": 8076,
  "bone": 11935,
  "bones": 19204,
  "book": 3961,
  "books": 12381,
  "bor": 6106,
  "borah": 22857,
  "borg": 22644,
  "born": 9138,
  "borne": 15996,
  "bot": 10766,
  "both": 23189,
  "bott": 20561,
  "bound": 13319,
  "bour": 10907,
  "bourne": 19537,
  "bout": 19282,
  "bow": 5300,
  "bows": 25854,
  "box": 9093,
  "boy": 6603,
  "br": 1498,
  "bra": 11439,
  "brain": 27730,
  "bral": 27727,
  "brance": 20015,
  "braska": 29721,
  "bre": 6872,
  "bread": 26694,
  "break": 12371,
  "breaking": 21433,
  "breed": 28247,
  "brew": 7650,
  "bri": 25411,
  "brid": 13899,
  "bridge": 11243,
  "bringing": 23971,
  "bris": 10384,
  "bro": 12646,
  "broken": 24973,
  "brother": 21762,
  "brow": 6722,
  "brown": 20797,
  "brows": 5737,
  "brush": 16880,
  "bs": 1939,
  "bsolutely": 13668,
  "bt": 24302,
  "bu": 16514,
  "bud": 21174,
  "buh": 16561,
  "build": 19298,
  "building": 27724,
  "built": 27825,
  "bul": 12375,
  "bur": 5287,
  "burg": 11437,
  "burgh": 17409,
  "burn": 13221,
  "burst": 13923,
  "bury": 13636,
  "bus": 21516,
  "but": 2231,
  "button": 17288,
  "by": 1472,
  "bye": 5732,
  "byes": 19407,
  "c": 71,
  "ca": 3747,
  "cake": 27409,
  "cal": 14239,
  "call": 26168,
  "called": 9940,
  "cam": 27277,
  "can": 4880,
  "cap": 23465,
  "car": 8819,
  "card": 21208,
  "care": 14012,
  "case": 6032,
  "cases": 25929,
  "cast": 5725,
  "cat": 11304,
  "cate": 27891,
  "cause": 14863,
  "cc": 1497,
  "ccording": 6427,
  "ce": 372,
  "cean": 4643,
  "ceans": 19234,
  "ced": 862,
  "cede": 17475,
  "ceded": 13711,
  "cedented": 22810,
  "cedes": 16144,
  "ceding": 23805,
  "ceed": 2987,
  "ceived": 26310,
  "cel": 8354,
  "celain": 22297,
  "celer": 8335,
  "cell": 4093,
  "celled": 18813,
  "cellence": 23871,
  "cellent": 6041,
  "cember": 7599,
  "cence": 19731,
  "cend": 3413,
  "cent": 1896,
  "centered": 25728,
  "century": 27146,
  "cept": 1047,
  "ceptible": 21086,
  "ception": 4078,
  "cer": 1336,
  "cerity": 15334,
  "cerned": 23620,
  "cerpt": 20659,
  "cers": 10977,
  "cery": 21820,
  "ces": 1039,
  "cess": 984,
  "cession": 20559,
  "cest": 7781,
  "cey": 29950,
  "ch": 387,
  "cha": 2456,
  "chable": 26605,
  "chae": 17508,
  "chair": 9708,
  "chal": 13554,
  "chamber": 29485,
  "chan": 3465,
  "chand": 22324,
  "change": 17814,
  "changel": 26826,
  "changing": 27995,
  "chant": 25357,
  "char": 15947,
  "che": 3899,
  "check": 20974,
  "ched": 820,
  "chel": 16320,
  "chem": 18236,
  "chemy": 28357,
  "chen": 13785,
  "cher": 3903,
  "chers": 10177,
  "ches": 2114,
  "chet": 22884,
  "chi": 19892,
  "chie": 3374,
  "chief": 9799,
  "child": 16759,
  "children": 14740,
  "ching": 1092,
  "chn": 2403,
  "chnology": 23753,
  "cho": 3767,
  "chond": 25204,
  "chool": 1408,
  "cht": 19843,
  "ci": 2696,
  "cia": 14469,
  "ciating": 18175,
  "cie": 28706,
  "cient": 3221,
  "cients": 27694,
  "cies": 6351,
  "cil": 3319,
  "cill": 29811,
  "cing": 2803,
  "cion": 27926,
  "cious": 1994,
  "ciously": 13101,
  "cipl": 21416,
  "cir": 26763,
  "cium": 27737,
  "ck": 510,
  "cked": 2964,
  "cker": 12041,
  "cket": 2662,
  "ckets": 6226,
  "ckett": 25315,
  "cking": 4138,
  "cknow": 5024,
  "cks": 4455,
  "cl": 848,
  "clad": 23747,
  "claim": 3790,
  "claimed": 4765,
  "clair": 27104,
  "clam": 17405,
  "clamation": 20963,
  "class": 12869,
  "cle": 1719,
  "cled": 11984,
  "cles": 3346,
  "clesi": 27041,
  "clesiast": 28264,
  "click": 8338,
  "cliff": 26824,
  "clin": 23858,
  "cling": 9486,
  "clinical": 26153,
  "clip": 21419,
  "clock": 6680,
  "closed": 26593,
  "closure": 29713,
  "cloth": 16244,
  "club": 25101,
  "clud": 1716,
  "clude": 25273,
  "cluded": 13553,
  "cluding": 12556,
  "clus": 5515,
  "clusion": 5771,
  "clusions": 11430,
  "clusive": 9383,
  "clusively": 17726,
  "co": 2836,
  "coal": 20787,
  "coat": 16039,
  "cogn": 25143,
  "coh": 26220,
  "col": 5758,
  "cold": 27556,
  "coll": 22520,
  "colm": 10707,
  "colo": 29740,
  "colored": 13460,
  "com": 1618,
  "come": 2575,
  "comes": 13195,
  "coming": 5743,
  "comings": 29722,
  "commun": 22465,
  "comp": 16454,
  "con": 2622,
  "cond": 14512,
  "condition": 28661,
  "conf": 15404,
  "confidence": 29423,
  "connected": 29308,
  "conom": 3846,
  "cons": 10418,
  "conscious": 8023,
  "consciously": 20005,
  "cont": 7823,
  "contin": 29881,
  "control": 16695,
  "cony": 9580,
  "cop": 20964,
  "cor": 14408,
  "core": 21674,
  "corn": 19142,
  "cos": 29052,
  "cott": 21404,
  "could": 17570,
  "count": 20092,
  "course": 18828,
  "cover": 18346,
  "covered": 14834,
  "covery": 25648,
  "cr": 8131,
  "cra": 23372,
  "craft": 6490,
  "cre": 14689,
  "cri": 1828,
  "cribe": 17287,
  "cribed": 11734,
  "cript": 4727,
  "cription": 9739,
  "criptions": 29994,
  "cro": 15674,
  "cross": 24515,
  "cs": 27488,
  "ct": 382,
  "ctic": 18026,
  "ction": 1030,
  "ctions": 5488,
  "ctive": 27265,
  "ctor": 2037,
  "ctors": 25794,
  "cue": 28405,
  "cul": 3862,
  "cular": 9069,
  "culation": 24021,
  "cules": 11675,
  "cup": 9728,
  "cur": 22462,
  "cus": 20495,
  "cuse": 9662,
  "cut": 8132,
  "cy": 1591,
  "cycl": 21116,
  "cycloped": 27184,
  "cz": 28846,
  "cÃ©": 14828,
  "d": 72,
  "da": 5964,
  "dad": 13394,
  "dal": 24663,
  "dale": 15969,
  "dam": 13619,
  "damn": 27850,
  "dan": 14418,
  "dark": 21720,
  "date": 23292,
  "dated": 24263,
  "daughter": 16197,
  "day": 1133,
  "dd": 2738,
  "dden": 1669,
  "de": 1875,
  "dead": 19941,
  "deal": 13693,
  "death": 23009,
  "dec": 21808,
  "ded": 1034,
  "deep": 23787,
  "def": 13032,
  "defense": 26178,
  "del": 19669,
  "dem": 19807,
  "den": 1080,
  "dened": 12208,
  "dening": 25946,
  "dens": 18634,
  "dep": 22082,
  "dependent": 20607,
  "der": 1196,
  "dered": 29320,
  "derived": 24866,
  "ders": 17950,
  "des": 10789,
  "dest": 16203,
  "deus": 21931,
  "develop": 26410,
  "df": 19381,
  "di": 13937,
  "dia": 10039,
  "dian": 28886,
  "did": 12200,
  "die": 5235,
  "dies": 28062,
  "dig": 29888,
  "dim": 16214,
  "dimensional": 18662,
  "din": 16593,
  "ding": 2277,
  "dington": 28682,
  "direct": 26906,
  "dis": 11851,
  "disc": 28349,
  "dish": 20071,
  "div": 27036,
  "dle": 1847,
  "dled": 11583,
  "dles": 16555,
  "dling": 12750,
  "dney": 11231,
  "do": 3902,
  "doc": 27703,
  "dock": 29809,
  "does": 25291,
  "dog": 14643,
  "doing": 21877,
  "dollar": 22773,
  "dom": 2235,
  "don": 6844,
  "door": 11484,
  "doors": 18922,
  "dotes": 27668,
  "down": 5585,
  "dr": 21032,
  "dra": 16084,
  "dream": 14148,
  "dress": 24077,
  "dressed": 24356,
  "dri": 15199,
  "driven": 26384,
  "driver": 29276,
  "dro": 10226,
  "drop": 16515,
  "ds": 7476,
  "du": 1495,
  "duc": 5364,
  "duct": 13878,
  "duction": 21631,
  "dy": 2227,
  "dÄ±r": 27226,
  "e": 73,
  "eBook": 23836,
  "ea": 12253,
  "ead": 1474,
  "eah": 1576,
  "eal": 6080,
  "ear": 587,
  "earch": 8377,
  "eared": 1653,
  "earing": 7935,
  "earl": 9533,
  "early": 14505,
  "ears": 1710,
  "eat": 17186,
  "eb": 4400,
  "ebe": 23447,
  "ebru": 8983,
  "ebruary": 9013,
  "ec": 761,
  "ecause": 2484,
  "ecc": 20893,
  "ecca": 5381,
  "echan": 21803,
  "echari": 27929,
  "echariah": 27965,
  "eches": 19457,
  "econ": 23708,
  "economic": 28970,
  "ecost": 24013,
  "ect": 520,
  "ected": 11522,
  "ecting": 29589,
  "ection": 7412,
  "ections": 27315,
  "ective": 6112,
  "ector": 11517,
  "ects": 18560,
  "ectual": 24958,
  "ed": 272,
  "eda": 16368,
  "ede": 19930,
  "eden": 16316,
  "eding": 6029,
  "eds": 4112,
  "edu": 29311,
  "educ": 22124,
  "edy": 11707,
  "ee": 957,
  "eech": 4581,
  "eed": 2469,
  "eeee": 29370,
  "eel": 4612,
  "eeling": 7039,
  "eely": 24337,
  "eem": 8473,
  "een": 2894,
  "eenth": 18729,
  "ees": 2517,
  "eese": 25163,
  "eez": 13657,
  "ef": 6632,
  "eff": 9197,
  "effic": 22501,
  "efficient": 29408,
  "eg": 3769,
  "ege": 9020,
  "egr": 6445,
  "ei": 23668,
  "eight": 12789,
  "ek": 1309,
  "eke": 4564,
  "ekend": 4989,
  "ekiel": 19441,
  "eks": 1995,
  "el": 391,
  "ela": 6423,
  "eland": 10002,
  "elcome": 8213,
  "ele": 10311,
  "elect": 22227,
  "eled": 5980,
  "eless": 2891,
  "elessly": 21123,
  "elest": 9500,
  "elf": 4787,
  "elfth": 29666,
  "elia": 6543,
  "elic": 26664,
  "elie": 29389,
  "eline": 5705,
  "elines": 16275,
  "eling": 8793,
  "elius": 27201,
  "ell": 471,
  "ella": 4176,
  "ellar": 19538,
  "elle": 4514,
  "ellectual": 29885,
  "elled": 5402,
  "eller": 10526,
  "elli": 17630,
  "ellig": 11295,
  "elligence": 15359,
  "elling": 5873,
  "ello": 21537,
  "ellow": 11119,
  "ells": 22366,
  "ellular": 26917,
  "elly": 5224,
  "elo": 23697,
  "elope": 17319,
  "els": 1642,
  "elsh": 24420,
  "elson": 13039,
  "elt": 857,
  "elta": 19561,
  "elve": 4614,
  "em": 466,
  "ema": 14922,
  "email": 23719,
  "eman": 9036,
  "ember": 3523,
  "emed": 12338,
  "emen": 13494,
  "ement": 1708,
  "ements": 7143,
  "emer": 26285,
  "emet": 11666,
  "emetery": 12527,
  "emic": 16937,
  "eming": 28772,
  "emon": 13398,
  "empl": 18637,
  "employ": 14058,
  "empt": 1826,
  "emption": 14069,
  "ems": 3875,
  "emy": 22990,
  "en": 284,
  "ena": 3254,
  "enance": 13528,
  "enc": 24011,
  "ence": 673,
  "enced": 6849,
  "ences": 3920,
  "ench": 4226,
  "encies": 8975,
  "encing": 9883,
  "ency": 3923,
  "end": 591,
  "ended": 2005,
  "ender": 6148,
  "enders": 25716,
  "ending": 2464,
  "endix": 21041,
  "endo": 20239,
  "endy": 12066,
  "ene": 1268,
  "ened": 909,
  "enedict": 21413,
  "ener": 16408,
  "eness": 5713,
  "eng": 2421,
  "enger": 4346,
  "engers": 7513,
  "ength": 3800,
  "engthen": 28204,
  "ening": 1579,
  "enix": 9264,
  "enment": 14024,
  "enn": 2590,
  "enna": 29221,
  "ennie": 28010,
  "ennis": 12752,
  "enny": 4005,
  "eno": 28181,
  "ens": 839,
  "ense": 1161,
  "ensed": 8005,
  "ensen": 21210,
  "enses": 9852,
  "ensing": 25364,
  "ension": 3612,
  "ensional": 17032,
  "ensions": 9849,
  "ensitive": 19642,
  "ensive": 5369,
  "ensively": 14525,
  "enson": 16516,
  "ensus": 13334,
  "ent": 335,
  "enta": 26379,
  "ental": 2845,
  "ented": 3088,
  "enter": 27029,
  "enth": 8639,
  "ential": 2906,
  "entially": 7189,
  "entials": 24926,
  "entin": 16250,
  "enting": 22753,
  "ention": 1173,
  "entious": 26164,
  "ently": 1369,
  "enton": 18894,
  "entric": 17956,
  "ents": 927,
  "enty": 1778,
  "environment": 21637,
  "enzie": 17933,
  "eous": 4947,
  "ep": 530,
  "eped": 13026,
  "epend": 4667,
  "ependence": 22983,
  "ependent": 14281,
  "eping": 4547,
  "epr": 24336,
  "eps": 4630,
  "ept": 16913,
  "equ": 9279,
  "er": 275,
  "era": 3641,
  "erable": 7396,
  "eral": 2739,
  "erals": 16917,
  "eras": 8806,
  "erate": 10833,
  "eration": 8108,
  "erc": 2495,
  "erce": 23608,
  "erd": 18905,
  "ere": 712,
  "ered": 599,
  "eredith": 15447,
  "erek": 7735,
  "erella": 28964,
  "eren": 10535,
  "erena": 13209,
  "erence": 3478,
  "erences": 9773,
  "erent": 9334,
  "erer": 8647,
  "erers": 15621,
  "erest": 1547,
  "eri": 11624,
  "eria": 19236,
  "erial": 3191,
  "eric": 25243,
  "erick": 15284,
  "erie": 7172,
  "eries": 14968,
  "ering": 1145,
  "erior": 11324,
  "erk": 20848,
  "erm": 2128,
  "ermaid": 21148,
  "erment": 24177,
  "ern": 1977,
  "ernacle": 24188,
  "ernal": 18099,
  "erness": 11032,
  "erno": 21338,
  "ero": 5819,
  "eron": 5555,
  "erred": 22231,
  "erro": 23222,
  "erry": 6751,
  "ers": 440,
  "ersed": 11627,
  "erson": 3770,
  "ert": 1019,
  "ertain": 1365,
  "ertained": 17277,
  "ertainly": 10529,
  "erted": 6328,
  "erting": 17741,
  "erto": 28775,
  "erton": 25305,
  "erv": 1766,
  "erva": 27485,
  "ervation": 6475,
  "erve": 3162,
  "erved": 3080,
  "erves": 5177,
  "erving": 7803,
  "ery": 1819,
  "es": 290,
  "esa": 21492,
  "esar": 15358,
  "esc": 10959,
  "escend": 22518,
  "ese": 4232,
  "esh": 2792,
  "esha": 29241,
  "eside": 19496,
  "esides": 4447,
  "esis": 7035,
  "esity": 27757,
  "esome": 7460,
  "esota": 23717,
  "especially": 19881,
  "ess": 413,
  "essa": 8057,
  "esse": 7188,
  "essed": 10856,
  "essee": 21095,
  "essel": 6212,
  "essert": 13250,
  "ession": 2686,
  "essional": 24114,
  "essions": 11106,
  "essor": 4854,
  "est": 457,
  "estab": 22403,
  "este": 21896,
  "estead": 28306,
  "ested": 4288,
  "esteem": 24328,
  "ester": 8986,
  "estern": 5318,
  "esters": 29489,
  "esthetic": 22982,
  "estic": 11114,
  "estine": 29180,
  "esting": 22845,
  "estion": 7998,
  "estly": 10300,
  "estone": 16141,
  "ests": 3417,
  "esus": 1572,
  "esy": 12458,
  "et": 324,
  "eta": 17191,
  "etary": 18655,
  "etch": 22143,
  "ete": 11691,
  "eted": 26689,
  "eteen": 13127,
  "eteenth": 25624,
  "eter": 2413,
  "eteria": 13621,
  "eterm": 19406,
  "etermined": 29068,
  "eters": 13484,
  "eth": 1460,
  "ethe": 9855,
  "etheless": 10632,
  "ether": 5538,
  "ethod": 10883,
  "ethods": 15694,
  "etic": 5297,
  "etically": 14394,
  "etics": 16322,
  "etime": 29510,
  "eting": 11771,
  "eton": 23310,
  "etr": 29061,
  "etry": 17987,
  "ets": 1417,
  "etsy": 26844,
  "ett": 3717,
  "etta": 12378,
  "ette": 4839,
  "etted": 29126,
  "ettes": 18258,
  "etti": 27064,
  "ettle": 13480,
  "etts": 22232,
  "etus": 28398,
  "ety": 3447,
  "eur": 14251,
  "ev": 2407,
  "even": 10962,
  "event": 19668,
  "ever": 899,
  "everal": 6892,
  "every": 11908,
  "everything": 21322,
  "evil": 27766,
  "evin": 6190,
  "ew": 686,
  "ex": 1783,
  "except": 21058,
  "existent": 25801,
  "exp": 26865,
  "exper": 28988,
  "ext": 5116,
  "ey": 1780,
  "eye": 20501,
  "eyed": 7871,
  "eyes": 28148,
  "ez": 9154,
  "ezvous": 22423,
  "f": 74,
  "fa": 5351,
  "face": 9980,
  "faced": 12243,
  "fact": 22451,
  "factly": 27521,
  "fal": 25889,
  "fall": 5798,
  "fallen": 26606,
  "falls": 20624,
  "family": 28096,
  "far": 20194,
  "fare": 12889,
  "fashion": 18384,
  "fashioned": 19229,
  "fast": 3454,
  "fat": 24457,
  "father": 5025,
  "fe": 7861,
  "fect": 1590,
  "fed": 22379,
  "feed": 26483,
  "feel": 28265,
  "feit": 24044,
  "feld": 29902,
  "felt": 20969,
  "fer": 2843,
  "ference": 29086,
  "few": 25739,
  "ff": 586,
  "ffic": 3783,
  "fi": 15958,
  "fia": 12355,
  "fiction": 16377,
  "field": 5642,
  "fif": 22377,
  "fig": 23648,
  "fight": 13308,
  "filled": 12481,
  "fin": 25969,
  "fing": 26062,
  "finger": 21112,
  "fire": 6728,
  "first": 12192,
  "fish": 12687,
  "fit": 7859,
  "fits": 15514,
  "fitting": 25456,
  "five": 6522,
  "fl": 4081,
  "flakes": 28800,
  "fle": 23759,
  "flies": 13200,
  "flo": 21629,
  "floor": 27276,
  "flower": 20903,
  "flowers": 28601,
  "fly": 11572,
  "fo": 22495,
  "fol": 17687,
  "fold": 12130,
  "folded": 28620,
  "folio": 22168,
  "folk": 17325,
  "food": 27576,
  "foot": 7848,
  "for": 2844,
  "force": 6941,
  "forced": 14449,
  "ford": 5198,
  "fore": 597,
  "forest": 25670,
  "form": 1063,
  "formation": 10023,
  "formed": 13428,
  "forming": 26624,
  "forms": 27722,
  "fort": 1520,
  "forter": 23540,
  "forth": 25497,
  "fortun": 4090,
  "fortunate": 10896,
  "fortunately": 4933,
  "fortune": 21643,
  "forward": 18254,
  "found": 14330,
  "founded": 18182,
  "four": 8448,
  "fr": 12425,
  "frame": 16827,
  "fred": 25630,
  "free": 9835,
  "frey": 26703,
  "friend": 4703,
  "friendly": 20054,
  "from": 10392,
  "front": 12097,
  "ft": 666,
  "fted": 15150,
  "ften": 13689,
  "fter": 627,
  "fters": 27417,
  "fts": 23882,
  "fuck": 18187,
  "fucker": 26974,
  "fucking": 29202,
  "ful": 825,
  "full": 20034,
  "fully": 1468,
  "fulness": 10366,
  "function": 13630,
  "fy": 23001,
  "g": 75,
  "ga": 6570,
  "gage": 12996,
  "gal": 13206,
  "gam": 21725,
  "game": 26956,
  "gan": 1842,
  "gar": 4275,
  "gard": 23276,
  "garita": 28438,
  "gart": 22332,
  "garten": 26788,
  "gas": 21512,
  "gate": 16552,
  "ge": 417,
  "geant": 6060,
  "ged": 1052,
  "gel": 16445,
  "gen": 2645,
  "gence": 14063,
  "gencies": 28275,
  "gency": 4766,
  "gend": 22497,
  "gener": 21254,
  "generation": 28883,
  "gent": 7323,
  "gently": 16685,
  "geon": 12477,
  "geons": 28074,
  "ger": 1251,
  "gered": 6565,
  "gers": 10277,
  "gery": 8640,
  "ges": 1908,
  "gest": 4681,
  "get": 913,
  "gether": 1277,
  "gg": 805,
  "gged": 1549,
  "gger": 6687,
  "ggers": 20599,
  "ggest": 2230,
  "ggie": 11558,
  "gging": 3509,
  "ggy": 7646,
  "gh": 326,
  "ghan": 10877,
  "ghed": 1796,
  "ght": 357,
  "gi": 16994,
  "gia": 22344,
  "gian": 20222,
  "gic": 7946,
  "gically": 22345,
  "gie": 5496,
  "gies": 8049,
  "gil": 14320,
  "gin": 5041,
  "ging": 1694,
  "gingly": 22316,
  "gins": 24641,
  "gio": 25752,
  "girl": 14001,
  "give": 12341,
  "given": 28192,
  "giveness": 28983,
  "giving": 9029,
  "gl": 5419,
  "glas": 14368,
  "glass": 16907,
  "gle": 9506,
  "gled": 17232,
  "gling": 24853,
  "gly": 6326,
  "gment": 4738,
  "gments": 14561,
  "gn": 3547,
  "go": 2564,
  "god": 15259,
  "going": 8424,
  "gold": 28677,
  "gom": 23293,
  "gomery": 25049,
  "gon": 14267,
  "gone": 25831,
  "good": 9839,
  "gor": 15464,
  "gorith": 21834,
  "gos": 22928,
  "got": 13962,
  "gotten": 24975,
  "gov": 25877,
  "gown": 22979,
  "gr": 1640,
  "gra": 12497,
  "grad": 23266,
  "grade": 16683,
  "gram": 2780,
  "grand": 19083,
  "grat": 12710,
  "great": 18651,
  "gree": 27489,
  "green": 13434,
  "greg": 7816,
  "gress": 3282,
  "gressed": 16785,
  "gression": 8530,
  "grim": 12220,
  "grin": 21925,
  "ground": 3449,
  "group": 28081,
  "grown": 15957,
  "gs": 5574,
  "gt": 23947,
  "gu": 4017,
  "guard": 10617,
  "guards": 18447,
  "gue": 11561,
  "guer": 29082,
  "guided": 21262,
  "gun": 6830,
  "gundy": 29461,
  "gus": 13020,
  "gy": 1657,
  "gypt": 5994,
  "h": 76,
  "ha": 273,
  "haan": 22469,
  "hab": 9426,
  "hack": 27595,
  "had": 4981,
  "hadow": 23467,
  "hael": 2489,
  "hag": 11016,
  "hage": 24348,
  "hah": 25961,
  "haha": 28365,
  "hai": 10640,
  "hail": 24154,
  "hair": 26386,
  "haired": 9738,
  "hak": 17302,
  "hake": 18080,
  "haki": 28752,
  "hal": 4712,
  "hale": 27901,
  "half": 20374,
  "hall": 6428,
  "ham": 2225,
  "hamber": 23086,
  "hamed": 8853,
  "hammad": 7594,
  "hammed": 23030,
  "hammer": 29724,
  "han": 469,
  "hana": 18517,
  "hand": 4804,
  "handed": 12505,
  "hane": 24012,
  "hang": 15223,
  "hant": 4917,
  "hantom": 19273,
  "hants": 18352,
  "hany": 12472,
  "hap": 22771,
  "haps": 1776,
  "hapter": 1488,
  "har": 1233,
  "hara": 8396,
  "haraoh": 12599,
  "hard": 3459,
  "harf": 29839,
  "hari": 13339,
  "harine": 24502,
  "harm": 10975,
  "harma": 23060,
  "hart": 20330,
  "has": 9411,
  "hase": 7232,
  "hast": 15492,
  "hat": 305,
  "hate": 16764,
  "hattan": 18016,
  "hav": 21991,
  "have": 11395,
  "haven": 25989,
  "haw": 10732,
  "hawk": 23599,
  "hay": 20466,
  "he": 262,
  "hea": 17065,
  "head": 1527,
  "headed": 10711,
  "heads": 16801,
  "health": 18401,
  "healthy": 22470,
  "heard": 10395,
  "heart": 8166,
  "hearted": 10113,
  "heartedly": 20114,
  "heast": 14487,
  "heat": 28337,
  "hed": 488,
  "hedral": 17253,
  "hee": 16637,
  "heel": 14835,
  "heim": 21586,
  "heit": 15888,
  "hel": 2201,
  "held": 13313,
  "helf": 28590,
  "helia": 25735,
  "hell": 5295,
  "helle": 7912,
  "help": 21766,
  "hem": 4203,
  "hemat": 10938,
  "hement": 24774,
  "hen": 450,
  "hend": 8323,
  "hens": 10225,
  "hensible": 20309,
  "hension": 11415,
  "hensive": 12336,
  "her": 367,
  "here": 596,
  "hered": 2599,
  "herent": 8998,
  "heres": 16483,
  "heric": 29717,
  "hern": 4508,
  "hero": 15255,
  "herry": 20565,
  "hers": 6337,
  "hes": 880,
  "hesians": 16075,
  "hesis": 17246,
  "hest": 5450,
  "het": 2327,
  "hether": 8367,
  "hetic": 5501,
  "hetically": 19108,
  "hetti": 22381,
  "heus": 19741,
  "hew": 3677,
  "hey": 21747,
  "hh": 6810,
  "hhh": 21617,
  "hi": 6090,
  "hia": 10322,
  "hib": 3610,
  "hich": 4920,
  "hift": 15074,
  "high": 15142,
  "hil": 26943,
  "hile": 3289,
  "hill": 13443,
  "him": 13691,
  "hin": 10200,
  "hind": 1014,
  "hing": 432,
  "hings": 6798,
  "hip": 1298,
  "hips": 10903,
  "hir": 28468,
  "hire": 10573,
  "hirt": 19479,
  "his": 7377,
  "hist": 13115,
  "hit": 28801,
  "hl": 15750,
  "hm": 15545,
  "hn": 29732,
  "ho": 1303,
  "hod": 3910,
  "hoe": 18394,
  "hol": 16633,
  "hold": 3810,
  "holder": 23632,
  "holders": 17414,
  "hole": 6211,
  "holes": 15937,
  "holy": 23218,
  "home": 18791,
  "hon": 19161,
  "hony": 9455,
  "hood": 3071,
  "hop": 12428,
  "hor": 11676,
  "horia": 28122,
  "horse": 27948,
  "hos": 22769,
  "host": 3823,
  "hot": 14085,
  "hou": 10070,
  "houl": 21072,
  "hound": 26221,
  "hour": 13042,
  "house": 4074,
  "houses": 17600,
  "how": 2394,
  "hr": 6434,
  "hra": 28887,
  "hran": 28379,
  "hs": 22662,
  "ht": 7831,
  "htm": 29384,
  "html": 13595,
  "http": 9917,
  "https": 23282,
  "hu": 6876,
  "huh": 26012,
  "hum": 17803,
  "human": 10082,
  "hundred": 16238,
  "hur": 18907,
  "hus": 5429,
  "husband": 27871,
  "husi": 6213,
  "hy": 855,
  "hyd": 16302,
  "hyl": 19143,
  "hys": 2079,
  "hysical": 13447,
  "hÄģ": 25549,
  "i": 77,
  "ia": 719,
  "iability": 29784,
  "iable": 5730,
  "iably": 21691,
  "iac": 9269,
  "iad": 24090,
  "iage": 19996,
  "iah": 3815,
  "ial": 787,
  "ially": 1672,
  "ials": 12047,
  "iam": 2055,
  "iament": 12849,
  "iami": 14596,
  "iamond": 7366,
  "ian": 868,
  "iana": 4665,
  "ianca": 20097,
  "iance": 5113,
  "iances": 19667,
  "iancÃ©": 15673,
  "iane": 8951,
  "ianna": 13652,
  "ianne": 17468,
  "iano": 10096,
  "ians": 1844,
  "iant": 4385,
  "iantly": 14013,
  "iao": 19820,
  "iar": 8542,
  "iary": 17447,
  "ias": 5550,
  "iat": 8746,
  "iate": 7103,
  "iated": 6310,
  "iating": 9742,
  "iation": 5126,
  "iations": 17105,
  "iator": 19008,
  "iatric": 22241,
  "ib": 987,
  "ibal": 23116,
  "iber": 4267,
  "ibi": 16358,
  "ibilities": 11358,
  "ibility": 3993,
  "ibl": 7546,
  "ible": 944,
  "ibles": 19164,
  "iblical": 11818,
  "iblings": 12800,
  "ibly": 4451,
  "ic": 315,
  "ica": 3369,
  "ical": 854,
  "ically": 1331,
  "ican": 10142,
  "icans": 29472,
  "icate": 3661,
  "icated": 3203,
  "icating": 10700,
  "ication": 3598,
  "ications": 6545,
  "icc": 25255,
  "ice": 545,
  "iced": 1752,
  "iceless": 20271,
  "icent": 20187,
  "ices": 1769,
  "ich": 617,
  "iche": 17335,
  "iches": 9342,
  "ichever": 22243,
  "ichi": 23912,
  "icho": 18193,
  "ichrist": 22044,
  "icht": 14126,
  "icia": 10253,
  "icial": 7893,
  "ician": 7472,
  "icians": 8230,
  "icide": 7344,
  "iciency": 18067,
  "icient": 4674,
  "icing": 4565,
  "icious": 5563,
  "icip": 4465,
  "icipal": 27894,
  "icism": 18052,
  "icit": 8387,
  "icity": 8358,
  "ick": 588,
  "icked": 1414,
  "icken": 13508,
  "icker": 15666,
  "ickered": 8842,
  "ickering": 22875,
  "ickers": 20865,
  "ickety": 27413,
  "icking": 2711,
  "ickle": 26022,
  "ickly": 12640,
  "icks": 6175,
  "icky": 12400,
  "icle": 3132,
  "icles": 4750,
  "ico": 5908,
  "icon": 21540,
  "icop": 8626,
  "ics": 1751,
  "ict": 968,
  "icted": 7183,
  "icting": 22647,
  "iction": 2999,
  "ictionary": 19016,
  "ictor": 4845,
  "icular": 17941,
  "icus": 14434,
  "icut": 24833,
  "icy": 4046,
  "id": 312,
  "ida": 6578,
  "idable": 19647,
  "idad": 19159,
  "idal": 17400,
  "idan": 24626,
  "idas": 28856,
  "idate": 23731,
  "idated": 20146,
  "idation": 28439,
  "iday": 4435,
  "idays": 13064,
  "idd": 24407,
  "idden": 2904,
  "iddy": 18098,
  "ide": 470,
  "ided": 1249,
  "idel": 10668,
  "iden": 17711,
  "idence": 2221,
  "idences": 18954,
  "ident": 1222,
  "idently": 24107,
  "idents": 6391,
  "ideo": 26069,
  "ideon": 18089,
  "ider": 1902,
  "idered": 24343,
  "idering": 5344,
  "iders": 7606,
  "ides": 1586,
  "idespread": 20369,
  "idge": 2733,
  "idi": 14022,
  "idian": 21595,
  "iding": 1815,
  "idious": 27200,
  "idly": 24477,
  "ido": 15795,
  "idon": 18659,
  "ids": 3885,
  "idy": 15571,
  "ie": 447,
  "iece": 7897,
  "ied": 747,
  "ief": 1888,
  "iel": 2712,
  "ield": 1500,
  "ielding": 24551,
  "ielle": 15246,
  "ien": 1750,
  "ience": 1350,
  "ienced": 23424,
  "iences": 10671,
  "iency": 9854,
  "iend": 19523,
  "ienna": 19413,
  "ienne": 24349,
  "iens": 7830,
  "ient": 1199,
  "ients": 3453,
  "ier": 1100,
  "iere": 27660,
  "ierra": 15747,
  "iers": 2938,
  "ies": 565,
  "iest": 5002,
  "iet": 1082,
  "ietal": 28131,
  "ieter": 21642,
  "ieth": 13573,
  "ieties": 10359,
  "iety": 2416,
  "ieu": 29760,
  "ieur": 19453,
  "ieval": 18790,
  "ieve": 9251,
  "iew": 1446,
  "if": 370,
  "ifa": 28351,
  "ife": 664,
  "ifer": 4725,
  "ifest": 27284,
  "iff": 865,
  "iffany": 15516,
  "ifference": 17088,
  "ifferent": 10477,
  "ifiable": 20531,
  "ific": 1464,
  "ifically": 7746,
  "ificant": 16551,
  "ification": 4354,
  "ifications": 11922,
  "ified": 2284,
  "ifier": 22179,
  "ifies": 10673,
  "ifix": 19149,
  "iform": 4857,
  "iforn": 6577,
  "ifornia": 6720,
  "ift": 2106,
  "ifted": 20766,
  "ifter": 25753,
  "ifties": 21377,
  "ifting": 13105,
  "ifts": 23834,
  "iful": 1865,
  "ifully": 9934,
  "ify": 3093,
  "ifying": 6517,
  "ig": 476,
  "igail": 15500,
  "igan": 10595,
  "igate": 28459,
  "igated": 29145,
  "igation": 19309,
  "igator": 21904,
  "ige": 7770,
  "igel": 17404,
  "igen": 9310,
  "igenous": 23442,
  "iger": 8194,
  "igers": 28773,
  "igg": 3048,
  "igger": 25823,
  "igh": 905,
  "ighb": 3285,
  "ighed": 2385,
  "ighing": 19952,
  "ight": 442,
  "ighted": 20500,
  "ights": 20416,
  "ighty": 7517,
  "igi": 26630,
  "igible": 19609,
  "igil": 29361,
  "igion": 14470,
  "igious": 12810,
  "igm": 14627,
  "igma": 20645,
  "ign": 789,
  "ignant": 29910,
  "igned": 4683,
  "igning": 8840,
  "ignty": 24329,
  "igo": 12093,
  "igor": 24240,
  "igs": 13286,
  "igure": 11873,
  "ih": 9160,
  "ihood": 25262,
  "ii": 8752,
  "iii": 29827,
  "ij": 4834,
  "ijah": 10179,
  "iji": 25570,
  "ijing": 23789,
  "ijuana": 19477,
  "ik": 1649,
  "ika": 7067,
  "ike": 1189,
  "iker": 22555,
  "ikes": 9642,
  "ikh": 28376,
  "iki": 12236,
  "ikipedia": 22016,
  "iko": 10974,
  "ikraman": 24885,
  "iky": 29971,
  "il": 383,
  "ila": 5487,
  "ilah": 16065,
  "iland": 22412,
  "ilar": 2706,
  "ilate": 22386,
  "ilated": 18918,
  "ilation": 14270,
  "ild": 725,
  "ilda": 9913,
  "ildred": 29929,
  "ildren": 7214,
  "ile": 589,
  "iled": 2672,
  "ilee": 16690,
  "ileen": 28018,
  "iler": 18624,
  "iles": 2873,
  "iless": 16737,
  "iley": 5683,
  "ili": 2157,
  "ilia": 12873,
  "ilian": 20444,
  "iliar": 2877,
  "iliation": 18458,
  "ilib": 22034,
  "ilibrium": 23701,
  "ilies": 4847,
  "ilight": 14613,
  "iling": 2428,
  "ilings": 27482,
  "ilipp": 10609,
  "ilis": 27935,
  "ilities": 3356,
  "ility": 1394,
  "ill": 376,
  "illa": 7118,
  "illac": 22485,
  "illance": 11833,
  "ille": 4997,
  "illed": 3844,
  "iller": 15080,
  "illery": 19957,
  "illes": 12604,
  "illian": 10299,
  "illing": 5301,
  "illion": 26748,
  "illo": 26041,
  "illon": 17674,
  "ills": 2593,
  "illusion": 29149,
  "illy": 2772,
  "ilo": 16765,
  "ilos": 5483,
  "ilot": 19528,
  "ils": 3795,
  "ilst": 7609,
  "ilt": 2093,
  "iltered": 17417,
  "ilton": 11794,
  "ilty": 5637,
  "ily": 785,
  "ilyn": 18998,
  "im": 323,
  "ima": 9380,
  "imal": 12839,
  "imals": 22784,
  "imate": 3897,
  "imated": 9788,
  "imately": 5589,
  "imb": 26733,
  "ime": 1437,
  "imed": 28350,
  "imen": 28530,
  "iment": 3956,
  "imental": 12884,
  "imented": 20824,
  "iments": 7820,
  "imer": 14299,
  "imes": 1816,
  "imeter": 10978,
  "imi": 18536,
  "imir": 19294,
  "imity": 13409,
  "imm": 8591,
  "immed": 11447,
  "immer": 7795,
  "imo": 19334,
  "imon": 25503,
  "imore": 20842,
  "imp": 5061,
  "impse": 8552,
  "imus": 17891,
  "in": 264,
  "ina": 1665,
  "inable": 16030,
  "inai": 25450,
  "inal": 2485,
  "inally": 3108,
  "inals": 10822,
  "inar": 26005,
  "inary": 3630,
  "inate": 6071,
  "inated": 4976,
  "inates": 12950,
  "inating": 6770,
  "ination": 1997,
  "inations": 9333,
  "inator": 23533,
  "inc": 2144,
  "ince": 979,
  "inces": 15685,
  "incess": 5271,
  "inch": 13797,
  "incing": 11429,
  "including": 19883,
  "inclusive": 24093,
  "inco": 21067,
  "incoln": 11325,
  "inct": 3198,
  "inction": 12420,
  "ind": 435,
  "inda": 5355,
  "inde": 18219,
  "inder": 7854,
  "index": 19388,
  "inding": 6121,
  "inds": 8248,
  "indsay": 19809,
  "induced": 18162,
  "indy": 7903,
  "ine": 559,
  "inea": 27288,
  "ined": 1093,
  "inee": 29738,
  "inement": 22954,
  "inence": 20710,
  "inent": 7763,
  "iner": 7260,
  "inery": 16209,
  "ines": 1457,
  "inese": 4903,
  "iness": 1311,
  "inet": 25791,
  "inf": 15446,
  "ing": 276,
  "inge": 9910,
  "inged": 10323,
  "inger": 4553,
  "inges": 14683,
  "inging": 4485,
  "ingle": 22425,
  "ingly": 2871,
  "ingo": 16035,
  "ings": 641,
  "ington": 10248,
  "ini": 6295,
  "inia": 28180,
  "inib": 24141,
  "inin": 27767,
  "ining": 1609,
  "inis": 14895,
  "inished": 16654,
  "inite": 2741,
  "initely": 3411,
  "inition": 25156,
  "inity": 6461,
  "ink": 577,
  "inkable": 26035,
  "inked": 4193,
  "inker": 20696,
  "inking": 1312,
  "inkle": 12215,
  "inkled": 7572,
  "inkles": 16712,
  "inkling": 12657,
  "inks": 6672,
  "inky": 21563,
  "inn": 3908,
  "inna": 23511,
  "innamon": 20902,
  "inne": 18904,
  "inner": 14356,
  "inning": 28543,
  "inny": 18079,
  "ino": 5031,
  "inois": 21818,
  "inoma": 15828,
  "inos": 24868,
  "inous": 22641,
  "inqu": 17063,
  "ins": 1150,
  "inski": 26734,
  "inson": 11124,
  "inst": 24620,
  "insula": 25510,
  "int": 877,
  "inta": 17859,
  "intage": 25081,
  "inted": 1624,
  "intend": 27765,
  "intendent": 29646,
  "inter": 8470,
  "interest": 12621,
  "interested": 22536,
  "inters": 20403,
  "inth": 8046,
  "inting": 3380,
  "into": 18192,
  "inton": 25412,
  "ints": 4452,
  "inty": 21545,
  "inum": 26139,
  "inus": 28888,
  "iny": 2102,
  "inyl": 29293,
  "io": 1517,
  "iod": 3371,
  "iol": 2703,
  "iolet": 7945,
  "iological": 22588,
  "iology": 16998,
  "ion": 333,
  "iona": 11820,
  "ional": 22434,
  "ione": 13814,
  "ioned": 22095,
  "ions": 691,
  "iopia": 27976,
  "ior": 1948,
  "iors": 13794,
  "ios": 4054,
  "iosity": 6698,
  "iot": 4580,
  "iotic": 25065,
  "iotics": 28529,
  "iour": 21361,
  "ious": 675,
  "iously": 1483,
  "iov": 17066,
  "iovanni": 24552,
  "iox": 23106,
  "ip": 613,
  "ipal": 9480,
  "ipe": 5761,
  "iped": 9170,
  "ipedia": 21062,
  "iper": 8231,
  "ipers": 28751,
  "ipes": 29698,
  "ipher": 10031,
  "iping": 21975,
  "ipl": 6399,
  "iple": 4113,
  "iples": 4896,
  "ipp": 3880,
  "ipped": 1789,
  "ipper": 11697,
  "ippers": 21986,
  "ippi": 22416,
  "ipping": 3674,
  "ippy": 25805,
  "ips": 2594,
  "ipt": 9942,
  "iq": 29889,
  "iqu": 4837,
  "ique": 3397,
  "iques": 8662,
  "iquity": 18186,
  "ir": 338,
  "ira": 4291,
  "irable": 15403,
  "irc": 20104,
  "ird": 1502,
  "irdre": 25070,
  "ire": 628,
  "irect": 8273,
  "ired": 1270,
  "ires": 2348,
  "irez": 28354,
  "iri": 14813,
  "irie": 26721,
  "iries": 20750,
  "iring": 3990,
  "irit": 1544,
  "iritual": 21077,
  "irk": 8720,
  "irl": 1035,
  "irled": 7562,
  "irling": 7904,
  "irm": 2391,
  "irmed": 5167,
  "irming": 10386,
  "irmingham": 22968,
  "irms": 13717,
  "iro": 11068,
  "iron": 3738,
  "ironment": 4188,
  "ironments": 21194,
  "irs": 11259,
  "irst": 714,
  "irsty": 19590,
  "irt": 1509,
  "irteen": 9604,
  "irth": 10746,
  "irties": 19423,
  "irts": 6613,
  "irty": 2393,
  "irus": 21882,
  "iry": 11371,
  "is": 281,
  "isa": 4408,
  "isal": 29463,
  "isan": 23535,
  "isance": 23593,
  "isation": 8059,
  "isations": 21260,
  "isc": 4391,
  "iscons": 25260,
  "isconsin": 25433,
  "isd": 16744,
  "isdom": 28428,
  "ise": 800,
  "ised": 1048,
  "isely": 28443,
  "isen": 17766,
  "iser": 8789,
  "isers": 21122,
  "ises": 2568,
  "isf": 3196,
  "isfaction": 29410,
  "isfied": 15003,
  "ish": 782,
  "isha": 6350,
  "ishable": 19147,
  "ishe": 24799,
  "ished": 1174,
  "isher": 7645,
  "isheries": 29295,
  "ishers": 16356,
  "ishes": 7996,
  "ishing": 2539,
  "ishly": 10336,
  "ishment": 4670,
  "ishop": 8894,
  "ishops": 27192,
  "isi": 24101,
  "isible": 5525,
  "ising": 1887,
  "ision": 1931,
  "isions": 4982,
  "isive": 16918,
  "isively": 28621,
  "isk": 8318,
  "isle": 9818,
  "ism": 1753,
  "isman": 25890,
  "isms": 7393,
  "isode": 27709,
  "isol": 29587,
  "ison": 1738,
  "isons": 15047,
  "isp": 13044,
  "iss": 721,
  "issa": 5280,
  "issance": 19641,
  "isse": 19526,
  "ission": 7498,
  "issions": 17652,
  "issy": 13620,
  "ist": 461,
  "ista": 11169,
  "istair": 13269,
  "istan": 10314,
  "istance": 18044,
  "istant": 20909,
  "isted": 2125,
  "isten": 6055,
  "istence": 15039,
  "istent": 6330,
  "ister": 1594,
  "istered": 28892,
  "isters": 4735,
  "istic": 3534,
  "istical": 17976,
  "istically": 13214,
  "isticated": 14839,
  "istics": 7749,
  "istine": 18111,
  "isting": 5786,
  "istle": 27805,
  "istrate": 26236,
  "istry": 5388,
  "ists": 1696,
  "isturbed": 29634,
  "isty": 26077,
  "isure": 15001,
  "isy": 8281,
  "it": 282,
  "ita": 4313,
  "itable": 5959,
  "itage": 13515,
  "ital": 1911,
  "itals": 14298,
  "itan": 9629,
  "itar": 8201,
  "itarian": 13072,
  "itary": 3304,
  "itate": 8733,
  "itated": 8130,
  "itating": 12075,
  "itation": 4076,
  "itations": 19931,
  "itative": 12744,
  "itc": 1748,
  "itch": 2346,
  "itched": 4518,
  "itchell": 14346,
  "itchen": 2147,
  "itcher": 14187,
  "itches": 7049,
  "itching": 9766,
  "ite": 640,
  "itect": 10237,
  "ited": 1287,
  "itement": 4927,
  "iter": 2399,
  "iterranean": 20438,
  "ites": 3445,
  "ith": 342,
  "itha": 15656,
  "ithe": 20741,
  "ither": 1267,
  "ithering": 20700,
  "ithing": 17467,
  "iths": 21718,
  "iti": 13842,
  "itic": 28816,
  "ities": 1390,
  "iting": 1784,
  "ition": 965,
  "itional": 3776,
  "itionally": 16361,
  "itions": 3019,
  "itious": 15023,
  "itiously": 19782,
  "itis": 22267,
  "itive": 2217,
  "itives": 25230,
  "itivity": 11967,
  "itiz": 4816,
  "itized": 26778,
  "itness": 3183,
  "ito": 7585,
  "itochond": 25481,
  "itol": 25176,
  "iton": 26205,
  "itone": 28360,
  "itor": 3555,
  "itors": 6590,
  "itory": 15197,
  "itous": 21405,
  "itra": 22244,
  "itri": 21692,
  "its": 1265,
  "itt": 603,
  "itted": 2458,
  "ittee": 8946,
  "itten": 2637,
  "ittens": 25491,
  "itter": 6575,
  "ittered": 10396,
  "ittering": 14321,
  "itters": 29752,
  "itting": 1462,
  "ittle": 788,
  "itty": 8222,
  "itual": 7464,
  "itude": 3302,
  "itudes": 11983,
  "iture": 7097,
  "itus": 21380,
  "itute": 5791,
  "itutes": 21438,
  "itution": 5781,
  "ity": 540,
  "itz": 6320,
  "itzer": 17902,
  "ium": 2959,
  "ius": 3147,
  "iv": 797,
  "iva": 9907,
  "ivable": 17857,
  "ival": 3560,
  "ivalent": 11615,
  "ivals": 29532,
  "ivan": 15682,
  "ivate": 29648,
  "ivated": 13282,
  "ivating": 23416,
  "ivation": 25783,
  "ive": 505,
  "ived": 2145,
  "ively": 2597,
  "iven": 3796,
  "iveness": 5304,
  "iver": 1635,
  "ivered": 4527,
  "ivers": 2169,
  "iversary": 18398,
  "iverse": 3336,
  "iversity": 3072,
  "ivery": 8952,
  "ives": 2204,
  "ivia": 8528,
  "ivid": 2596,
  "ividual": 20021,
  "ivil": 3768,
  "iving": 3024,
  "ivities": 18736,
  "ivity": 4915,
  "ix": 1106,
  "ixed": 12786,
  "ixie": 16145,
  "ixon": 15048,
  "iy": 6205,
  "iya": 9914,
  "iyan": 23241,
  "iz": 635,
  "iza": 12426,
  "izabeth": 5204,
  "izable": 15859,
  "izar": 10809,
  "izard": 7222,
  "izards": 15528,
  "ization": 2912,
  "izational": 25496,
  "izations": 8932,
  "ize": 1411,
  "ized": 1181,
  "izer": 14059,
  "izers": 21160,
  "izes": 6054,
  "izing": 2982,
  "izophren": 28429,
  "izz": 3887,
  "izza": 8884,
  "izzard": 24834,
  "izzed": 25673,
  "izzie": 12393,
  "izzy": 11146,
  "j": 78,
  "ja": 3338,
  "jack": 21048,
  "jamin": 11012,
  "jan": 15345,
  "jans": 26726,
  "jar": 15839,
  "je": 16070,
  "ject": 1159,
  "jected": 8505,
  "jection": 20019,
  "jective": 21501,
  "jects": 15875,
  "ji": 8637,
  "jin": 22637,
  "jo": 6745,
  "jor": 19021,
  "jorie": 26583,
  "jour": 23243,
  "joy": 1913,
  "joyed": 28830,
  "ju": 20853,
  "jud": 10284,
  "jug": 29949,
  "jun": 25904,
  "just": 6787,
  "k": 79,
  "ka": 4331,
  "kah": 21309,
  "kal": 27025,
  "kan": 23984,
  "kar": 12115,
  "kara": 28301,
  "kat": 29604,
  "kay": 1463,
  "ke": 358,
  "ked": 398,
  "kee": 14578,
  "keep": 8102,
  "keeper": 10670,
  "keepers": 29435,
  "keeping": 21706,
  "kees": 29025,
  "keit": 24704,
  "kel": 13318,
  "kempt": 27449,
  "ken": 1695,
  "ker": 4879,
  "kerchief": 15498,
  "kered": 7147,
  "kers": 12488,
  "kes": 2545,
  "ket": 6122,
  "key": 3884,
  "keys": 14423,
  "kg": 19765,
  "kh": 23692,
  "ki": 4529,
  "kick": 25744,
  "kie": 27351,
  "kill": 17293,
  "kily": 23355,
  "kin": 4462,
  "kind": 6471,
  "king": 445,
  "kins": 6873,
  "kirts": 16191,
  "kk": 25441,
  "kn": 3558,
  "know": 11642,
  "knowing": 18360,
  "knowledge": 28895,
  "known": 4454,
  "ko": 9831,
  "kov": 28266,
  "kra": 12151,
  "ks": 668,
  "ksha": 26801,
  "kt": 24452,
  "ku": 19137,
  "kur": 28117,
  "kward": 5129,
  "ky": 2567,
  "kyo": 20679,
  "l": 80,
  "la": 2740,
  "lad": 10885,
  "lady": 25945,
  "lah": 12418,
  "lahoma": 21924,
  "lain": 26328,
  "lam": 3686,
  "lamm": 17719,
  "lan": 5634,
  "lance": 10307,
  "land": 1666,
  "lando": 22155,
  "lands": 9435,
  "lapping": 29563,
  "lar": 6063,
  "larÄ±": 22303,
  "larÄ±n": 23364,
  "las": 25931,
  "lasses": 12937,
  "last": 16315,
  "lasting": 13713,
  "lated": 15026,
  "lation": 8694,
  "lav": 22854,
  "law": 8924,
  "laws": 28198,
  "lay": 19358,
  "ld": 318,
  "lda": 19228,
  "lden": 25276,
  "lder": 23676,
  "lding": 28321,
  "ldom": 14273,
  "ldon": 24703,
  "le": 308,
  "lea": 28855,
  "lear": 4890,
  "lease": 2026,
  "lebr": 4307,
  "lec": 6498,
  "lect": 1482,
  "lection": 4798,
  "led": 632,
  "ledge": 2171,
  "lee": 8979,
  "leen": 15831,
  "leep": 3279,
  "leg": 8718,
  "legged": 16999,
  "lei": 21499,
  "leigh": 21063,
  "leine": 25183,
  "lem": 14291,
  "lemen": 20802,
  "lement": 4690,
  "lements": 24066,
  "len": 11489,
  "lena": 14780,
  "lend": 11689,
  "lene": 10393,
  "leness": 19545,
  "length": 14545,
  "ler": 2067,
  "leri": 25616,
  "lers": 8391,
  "les": 935,
  "lesh": 27490,
  "less": 1043,
  "lessly": 4504,
  "lessness": 10894,
  "lest": 16494,
  "leston": 27597,
  "let": 2382,
  "letcher": 18359,
  "lete": 22539,
  "leton": 11440,
  "lets": 10733,
  "lett": 22301,
  "lette": 26359,
  "letter": 22530,
  "levant": 16493,
  "levard": 25334,
  "level": 14604,
  "lex": 2006,
  "ley": 2291,
  "lf": 536,
  "lfriend": 5810,
  "li": 6858,
  "lia": 27606,
  "liament": 13304,
  "lib": 29860,
  "lic": 1667,
  "lication": 22066,
  "lich": 21773,
  "licia": 21813,
  "lict": 5746,
  "licted": 11743,
  "licting": 17738,
  "liction": 24576,
  "lie": 3756,
  "lied": 23761,
  "lies": 5215,
  "life": 7836,
  "lig": 22697,
  "light": 2132,
  "lights": 8112,
  "lihood": 21129,
  "like": 2400,
  "liked": 21951,
  "lim": 3665,
  "lime": 24288,
  "limited": 18705,
  "lin": 3567,
  "line": 3034,
  "lined": 19481,
  "lines": 14170,
  "liness": 14030,
  "ling": 967,
  "lings": 12478,
  "link": 25319,
  "lins": 28207,
  "lish": 2747,
  "lished": 3869,
  "lishing": 7948,
  "list": 15390,
  "lit": 13057,
  "little": 25242,
  "lived": 26671,
  "living": 22665,
  "ll": 288,
  "lla": 7760,
  "lle": 8907,
  "lled": 9870,
  "llen": 2660,
  "llenge": 18652,
  "lli": 24156,
  "llie": 14779,
  "lling": 27625,
  "llis": 24838,
  "llo": 28107,
  "lly": 7130,
  "lo": 2370,
  "load": 6554,
  "loaded": 12411,
  "loading": 16490,
  "loads": 28834,
  "lob": 27557,
  "lock": 5844,
  "locks": 26454,
  "loe": 8862,
  "log": 19888,
  "logy": 29077,
  "lon": 14949,
  "long": 7334,
  "look": 14208,
  "looking": 6359,
  "lor": 5159,
  "lord": 13288,
  "lorn": 22360,
  "los": 29560,
  "lost": 29494,
  "lot": 7528,
  "lotte": 9938,
  "lov": 26774,
  "love": 15118,
  "loving": 22981,
  "low": 7587,
  "lph": 13194,
  "ls": 3396,
  "lt": 2798,
  "lu": 3243,
  "ly": 328,
  "lying": 5719,
  "lymp": 12679,
  "lyn": 4381,
  "lynn": 14858,
  "lyph": 11997,
  "m": 81,
  "mL": 25506,
  "ma": 1773,
  "mac": 21437,
  "mad": 6074,
  "made": 9073,
  "mael": 19827,
  "mag": 21504,
  "maid": 15291,
  "mail": 9730,
  "mak": 23328,
  "make": 22929,
  "maker": 19169,
  "makers": 23588,
  "making": 11761,
  "mal": 12682,
  "man": 1275,
  "mand": 21582,
  "mann": 11793,
  "mans": 16971,
  "manship": 26489,
  "manuel": 26718,
  "many": 23723,
  "mar": 4394,
  "mare": 7682,
  "mares": 11309,
  "mark": 6733,
  "marked": 19850,
  "market": 16678,
  "marks": 20735,
  "married": 27537,
  "mary": 17936,
  "mas": 4057,
  "master": 12637,
  "mat": 14037,
  "mate": 8238,
  "mates": 8314,
  "math": 19337,
  "matic": 22175,
  "may": 15489,
  "maybe": 15523,
  "mb": 1373,
  "mber": 3250,
  "mbers": 2883,
  "mble": 11581,
  "me": 1684,
  "meal": 23168,
  "meaning": 29041,
  "meas": 26937,
  "med": 1050,
  "medi": 1937,
  "mediated": 25188,
  "mediately": 12318,
  "mega": 26465,
  "mek": 25585,
  "mel": 14520,
  "mem": 22798,
  "men": 2893,
  "mens": 24217,
  "ment": 581,
  "mente": 28750,
  "mented": 14483,
  "mentioned": 26223,
  "ments": 1526,
  "mer": 1124,
  "merc": 19518,
  "mercial": 22816,
  "mere": 26678,
  "meric": 2068,
  "mering": 25870,
  "mers": 16396,
  "mes": 6177,
  "met": 4883,
  "metic": 26453,
  "mg": 20745,
  "mi": 6553,
  "mia": 18792,
  "miah": 11565,
  "mic": 19420,
  "mid": 20332,
  "mie": 18584,
  "mighty": 8865,
  "mil": 24743,
  "mile": 25740,
  "mill": 14167,
  "million": 29254,
  "min": 3835,
  "mination": 26831,
  "mind": 8570,
  "minded": 11824,
  "mindedly": 27388,
  "mine": 16420,
  "ming": 2162,
  "minist": 15616,
  "minute": 17999,
  "mir": 9030,
  "miral": 11095,
  "miss": 2766,
  "missible": 24892,
  "mission": 4036,
  "missions": 23000,
  "mit": 4429,
  "mitt": 16208,
  "mitted": 6617,
  "ml": 11153,
  "mm": 2914,
  "mma": 15433,
  "mmm": 20191,
  "mn": 6308,
  "mo": 5458,
  "mod": 7776,
  "moil": 16838,
  "mom": 25485,
  "mon": 2961,
  "mond": 6656,
  "mons": 15767,
  "mont": 19770,
  "month": 25079,
  "mony": 7184,
  "moon": 17094,
  "mor": 19066,
  "more": 2444,
  "morning": 25455,
  "mos": 20749,
  "mosp": 6344,
  "most": 1182,
  "mother": 4668,
  "mount": 25434,
  "mour": 29462,
  "mouth": 17074,
  "mouthed": 27416,
  "moving": 17493,
  "mp": 2794,
  "mph": 16866,
  "mphony": 25317,
  "mpt": 9828,
  "ms": 1355,
  "much": 27055,
  "mun": 11560,
  "mund": 17454,
  "munition": 17346,
  "mus": 20698,
  "must": 26132,
  "mut": 24570,
  "my": 1589,
  "n": 82,
  "na": 1062,
  "nah": 21556,
  "nal": 3495,
  "nals": 22939,
  "nam": 8203,
  "name": 12165,
  "named": 20664,
  "names": 21340,
  "namese": 26560,
  "nan": 10197,
  "nand": 26382,
  "nap": 18883,
  "nar": 16791,
  "nas": 18104,
  "nat": 5776,
  "natural": 7582,
  "naturally": 26586,
  "natured": 29094,
  "nce": 1332,
  "nces": 5922,
  "nd": 271,
  "nda": 6470,
  "ndan": 14618,
  "nde": 26641,
  "ndel": 20615,
  "nder": 676,
  "ndered": 15360,
  "ndon": 27155,
  "ndor": 24281,
  "ndry": 11014,
  "nds": 5794,
  "ne": 741,
  "neath": 5765,
  "nec": 25247,
  "necess": 9720,
  "neck": 19951,
  "nect": 2222,
  "nected": 13371,
  "ned": 1016,
  "nedy": 12211,
  "need": 17135,
  "needed": 27540,
  "neg": 16745,
  "nel": 3134,
  "nell": 15910,
  "nels": 8077,
  "nen": 19364,
  "ner": 989,
  "nered": 29366,
  "nerg": 26543,
  "nergy": 13916,
  "ners": 3412,
  "nery": 25351,
  "nes": 4574,
  "nesday": 10104,
  "ness": 831,
  "nest": 14817,
  "net": 3891,
  "netic": 10594,
  "nette": 14103,
  "neum": 28484,
  "never": 18148,
  "new": 11115,
  "news": 20497,
  "nex": 18382,
  "ney": 2278,
  "neys": 16136,
  "ng": 717,
  "ngth": 28898,
  "nh": 11516,
  "ni": 10722,
  "nia": 21229,
  "nic": 7840,
  "nie": 3272,
  "night": 1914,
  "nik": 23573,
  "nin": 18358,
  "nine": 16714,
  "ning": 738,
  "nings": 11159,
  "nis": 10934,
  "nment": 8034,
  "nn": 28613,
  "no": 4478,
  "non": 7022,
  "noon": 3172,
  "noons": 28520,
  "nor": 5657,
  "normal": 15106,
  "not": 1621,
  "note": 20956,
  "nothing": 17156,
  "now": 2848,
  "nox": 22923,
  "ns": 3333,
  "nt": 492,
  "nthia": 16037,
  "ntil": 7168,
  "nton": 26588,
  "nty": 23660,
  "nu": 21521,
  "nut": 12689,
  "nuts": 29488,
  "ny": 1068,
  "nya": 29520,
  "o": 83,
  "oa": 15922,
  "oard": 7970,
  "ob": 811,
  "obal": 12970,
  "obb": 12137,
  "obbly": 25380,
  "obby": 6263,
  "obe": 13218,
  "obel": 20290,
  "ober": 7221,
  "obi": 19565,
  "obia": 23798,
  "obic": 21075,
  "obil": 25053,
  "obile": 13273,
  "oblast": 25430,
  "oblastoma": 27988,
  "obo": 26028,
  "obody": 6520,
  "obs": 12598,
  "oby": 21825,
  "oc": 652,
  "oca": 19024,
  "ocal": 20159,
  "ocaly": 17733,
  "ocalypse": 23547,
  "ocarc": 27687,
  "ocate": 12379,
  "ocated": 14464,
  "ocating": 18240,
  "ocation": 13047,
  "occup": 11547,
  "occupied": 13850,
  "ocent": 28381,
  "och": 9064,
  "oche": 22608,
  "ochem": 16431,
  "ochemical": 27039,
  "ochemistry": 27702,
  "oci": 3313,
  "ocial": 18284,
  "ock": 1006,
  "ocked": 2137,
  "ockey": 19255,
  "ocking": 3563,
  "ocks": 8968,
  "oco": 25795,
  "ocol": 5594,
  "ocolate": 7065,
  "ocols": 24478,
  "ocr": 4760,
  "ocracy": 21676,
  "ocrates": 27986,
  "ocratic": 23958,
  "ocus": 15062,
  "ocused": 21061,
  "ocy": 23462,
  "ocyt": 19956,
  "ocytes": 25868,
  "od": 436,
  "oda": 19865,
  "oday": 5551,
  "odd": 8360,
  "odding": 20546,
  "ode": 3073,
  "oded": 6486,
  "odes": 9489,
  "odge": 8576,
  "odi": 29999,
  "odied": 17200,
  "odies": 13114,
  "oding": 8573,
  "odka": 17073,
  "odor": 29876,
  "odore": 19898,
  "odox": 18513,
  "ods": 23591,
  "odus": 14767,
  "ody": 808,
  "oe": 4264,
  "oed": 24600,
  "oes": 12254,
  "oeuv": 23239,
  "of": 1993,
  "oferro": 26579,
  "off": 3292,
  "offee": 19817,
  "official": 28325,
  "offs": 24212,
  "oft": 11837,
  "og": 715,
  "oga": 10567,
  "ogan": 6749,
  "ogany": 21583,
  "ogen": 7607,
  "ogene": 15266,
  "ogenesis": 20308,
  "ogenic": 15495,
  "ogether": 6555,
  "ogged": 24693,
  "ogging": 29924,
  "oggle": 29191,
  "ogical": 21558,
  "ogn": 2211,
  "ograft": 18927,
  "ogram": 25165,
  "ograp": 6297,
  "ograph": 5407,
  "ographic": 16677,
  "ographical": 22880,
  "ography": 8744,
  "ogs": 20738,
  "ogue": 8732,
  "ogy": 10589,
  "oh": 1252,
  "ohl": 23141,
  "ohn": 1494,
  "oi": 20604,
  "oice": 922,
  "oices": 23914,
  "oid": 2285,
  "oids": 13473,
  "oin": 24246,
  "oint": 3107,
  "ointed": 4476,
  "ointing": 15535,
  "ointment": 5629,
  "oir": 16256,
  "ois": 13363,
  "oise": 18064,
  "ok": 3242,
  "okay": 29008,
  "oke": 1149,
  "oked": 8395,
  "oken": 16914,
  "okes": 21223,
  "oki": 12722,
  "oking": 19209,
  "oko": 15261,
  "oks": 15336,
  "ol": 464,
  "ola": 6905,
  "olai": 16589,
  "olan": 14675,
  "olar": 15880,
  "olas": 7939,
  "old": 859,
  "olded": 8601,
  "olding": 7988,
  "olds": 10425,
  "ole": 2154,
  "olen": 7166,
  "oleon": 26515,
  "oler": 19454,
  "oles": 6192,
  "olester": 21580,
  "olesterol": 23514,
  "oleum": 26938,
  "olf": 2943,
  "oli": 12424,
  "olia": 26530,
  "oliath": 29076,
  "olic": 4841,
  "olics": 21357,
  "olin": 29745,
  "oline": 14360,
  "olis": 14692,
  "olit": 15927,
  "olitan": 26890,
  "olitical": 26983,
  "olk": 11137,
  "oll": 1496,
  "ollar": 17282,
  "ollen": 10622,
  "ollo": 13650,
  "ollow": 6316,
  "ollowing": 11956,
  "olly": 3781,
  "oln": 10747,
  "olo": 14864,
  "olog": 1347,
  "ologic": 24330,
  "ological": 3819,
  "ologically": 15878,
  "ologies": 10329,
  "ologist": 9745,
  "ologists": 14391,
  "ologne": 24613,
  "ology": 2334,
  "olph": 16822,
  "ols": 4045,
  "olt": 5188,
  "olute": 3268,
  "olutely": 11605,
  "olution": 2923,
  "olve": 6629,
  "olved": 5839,
  "olves": 6193,
  "olving": 13861,
  "oly": 2340,
  "olyn": 19671,
  "om": 301,
  "oma": 5034,
  "oman": 4135,
  "omas": 3826,
  "omatic": 20793,
  "omb": 3539,
  "ombre": 26964,
  "ombs": 29743,
  "ome": 399,
  "omed": 4972,
  "omeday": 9541,
  "omen": 6031,
  "omena": 18000,
  "omer": 17909,
  "omes": 20065,
  "omet": 659,
  "ometer": 20364,
  "ometown": 23321,
  "ometric": 24016,
  "ometry": 16804,
  "omever": 25617,
  "omew": 28463,
  "omi": 11741,
  "omic": 9116,
  "omical": 28687,
  "omics": 28406,
  "omin": 3576,
  "omination": 17931,
  "ominations": 24845,
  "oming": 6408,
  "omm": 4562,
  "omo": 24060,
  "omon": 9656,
  "omp": 12433,
  "oms": 5708,
  "omy": 8596,
  "on": 283,
  "ona": 5666,
  "onal": 23603,
  "onation": 7437,
  "once": 27845,
  "ond": 576,
  "onda": 14308,
  "onday": 6915,
  "onde": 22861,
  "onder": 9837,
  "ondon": 4822,
  "one": 443,
  "oned": 3603,
  "onel": 5448,
  "oneliness": 14303,
  "onement": 22799,
  "onent": 7598,
  "onents": 9188,
  "oner": 15042,
  "ones": 2058,
  "oney": 1398,
  "ong": 508,
  "onge": 17068,
  "ongh": 21252,
  "ongs": 24325,
  "oni": 16226,
  "onia": 13260,
  "onian": 23490,
  "onic": 11885,
  "onies": 15818,
  "oning": 7728,
  "onis": 24814,
  "only": 13470,
  "onna": 3540,
  "ons": 858,
  "onscious": 3986,
  "onsciousness": 15240,
  "onse": 2835,
  "onsense": 8724,
  "onsequ": 29961,
  "onso": 19395,
  "onsored": 27129,
  "ont": 885,
  "ontal": 15740,
  "onto": 13990,
  "onut": 24951,
  "ony": 1659,
  "onya": 20020,
  "onym": 10244,
  "onymous": 13782,
  "oo": 352,
  "ood": 475,
  "oodle": 21506,
  "oodles": 22406,
  "oody": 29561,
  "oof": 8858,
  "ooh": 28771,
  "ook": 794,
  "ooked": 5717,
  "ooking": 2908,
  "ooks": 2034,
  "ool": 931,
  "ooled": 11881,
  "ools": 20980,
  "oom": 4545,
  "oon": 1941,
  "oons": 15435,
  "ooo": 25572,
  "oooo": 15024,
  "oop": 6931,
  "ooped": 8519,
  "ooper": 10404,
  "ooping": 14096,
  "oops": 20161,
  "oor": 12817,
  "oored": 24783,
  "oos": 14611,
  "oose": 3185,
  "oosevelt": 24041,
  "oosh": 24857,
  "oot": 4772,
  "ooted": 13862,
  "op": 430,
  "opa": 20272,
  "opard": 15038,
  "opath": 15699,
  "ope": 2021,
  "oped": 9881,
  "open": 15877,
  "opened": 21993,
  "oper": 12294,
  "opes": 13799,
  "opez": 28063,
  "oph": 3840,
  "opher": 9234,
  "ophren": 28352,
  "ophy": 19998,
  "opia": 19418,
  "opic": 17363,
  "oping": 10680,
  "opl": 20301,
  "ople": 678,
  "oples": 11458,
  "opp": 15938,
  "opped": 15122,
  "opping": 23966,
  "ops": 4022,
  "opt": 14171,
  "opy": 6048,
  "opyright": 8867,
  "oqu": 19686,
  "or": 286,
  "ora": 3772,
  "orable": 25535,
  "orage": 8019,
  "oral": 8351,
  "oran": 14130,
  "oration": 11552,
  "orc": 23260,
  "orce": 6451,
  "ord": 706,
  "orda": 26628,
  "ordaak": 29692,
  "ordan": 7530,
  "orden": 28000,
  "order": 5278,
  "orders": 19634,
  "ording": 2730,
  "ordon": 10021,
  "ords": 4190,
  "ore": 395,
  "oreal": 28194,
  "orean": 16413,
  "orect": 23421,
  "orectal": 23556,
  "ored": 2014,
  "oren": 11185,
  "orer": 26445,
  "ores": 4368,
  "oresc": 28499,
  "orescent": 20377,
  "orf": 26471,
  "org": 4298,
  "organ": 14371,
  "orge": 2976,
  "ori": 13165,
  "oria": 9918,
  "orial": 13886,
  "orian": 20068,
  "oric": 15497,
  "orical": 15272,
  "orient": 12701,
  "ories": 1907,
  "orig": 19155,
  "original": 26758,
  "oring": 2623,
  "orious": 7123,
  "oris": 27869,
  "ork": 1899,
  "orld": 3326,
  "orm": 768,
  "ormal": 10454,
  "ormally": 22744,
  "orman": 20440,
  "orms": 21310,
  "orn": 1427,
  "orne": 12875,
  "orney": 9939,
  "orns": 12107,
  "oro": 22999,
  "orous": 11649,
  "orph": 16111,
  "orr": 8429,
  "orrow": 2207,
  "orrows": 23932,
  "orry": 1571,
  "ors": 932,
  "orse": 6262,
  "orses": 4202,
  "orship": 16201,
  "ort": 518,
  "orted": 3695,
  "orter": 5779,
  "orters": 10748,
  "ortex": 16770,
  "orth": 2550,
  "orthern": 8013,
  "orthy": 10015,
  "orting": 8507,
  "ortion": 7898,
  "ortions": 17107,
  "ortment": 19856,
  "orton": 20889,
  "orts": 5236,
  "ortun": 2770,
  "ortunately": 10128,
  "orus": 12410,
  "ory": 835,
  "os": 452,
  "osa": 11401,
  "osaic": 29305,
  "osal": 7928,
  "osaur": 15208,
  "osc": 10190,
  "oscope": 25667,
  "oscow": 17256,
  "ose": 582,
  "osed": 1634,
  "oseidon": 28170,
  "osen": 4458,
  "oser": 19258,
  "oses": 3649,
  "osex": 13246,
  "osh": 3114,
  "oshi": 15800,
  "osie": 23825,
  "osing": 3142,
  "osis": 6334,
  "osition": 6576,
  "ositive": 18290,
  "osity": 13655,
  "osm": 7724,
  "oso": 17289,
  "osoever": 24020,
  "osom": 13197,
  "osome": 26042,
  "osomes": 26948,
  "osp": 1901,
  "ospel": 6234,
  "ospels": 22613,
  "osph": 16090,
  "osphere": 29548,
  "ospital": 2841,
  "oss": 875,
  "ossians": 26409,
  "ossible": 17817,
  "ossibly": 18933,
  "ost": 555,
  "oster": 7461,
  "ostic": 15180,
  "oston": 9894,
  "osure": 6418,
  "osy": 12429,
  "osystem": 22900,
  "ot": 313,
  "ota": 8615,
  "otal": 15521,
  "otally": 27187,
  "otch": 11637,
  "ote": 2109,
  "oted": 4026,
  "otein": 24039,
  "otent": 20655,
  "oter": 13574,
  "oters": 16014,
  "otes": 6918,
  "oth": 819,
  "othe": 25862,
  "othed": 27108,
  "othel": 18092,
  "other": 592,
  "otherapy": 18876,
  "othered": 25820,
  "othes": 10868,
  "oths": 19666,
  "othy": 8067,
  "otic": 5484,
  "oting": 6820,
  "otion": 1712,
  "otional": 22229,
  "otions": 3940,
  "otive": 27306,
  "otle": 25078,
  "oto": 12912,
  "otox": 20225,
  "ots": 1768,
  "ott": 1213,
  "otta": 16694,
  "otted": 6780,
  "otten": 3685,
  "ottie": 13210,
  "otting": 18073,
  "oty": 9059,
  "otype": 14576,
  "otypes": 23559,
  "ou": 270,
  "oub": 10964,
  "oubt": 27214,
  "oubted": 14044,
  "oubtedly": 14310,
  "ouch": 8758,
  "ouched": 12947,
  "ouching": 29916,
  "oud": 1514,
  "ouded": 17990,
  "oufl": 17470,
  "ough": 775,
  "ought": 2143,
  "oul": 1703,
  "ould": 360,
  "oun": 1787,
  "ounce": 5554,
  "ounced": 3637,
  "ouncer": 19131,
  "ounces": 16953,
  "ouncing": 8658,
  "ound": 607,
  "ounded": 7739,
  "ounding": 11722,
  "ounds": 5645,
  "ounge": 9027,
  "ount": 1126,
  "ounted": 11575,
  "ountered": 10152,
  "our": 553,
  "ourable": 20246,
  "ourage": 12975,
  "ourbon": 25545,
  "ource": 10555,
  "ources": 19727,
  "oured": 3582,
  "ourge": 23280,
  "ouri": 21464,
  "ouring": 13988,
  "ourke": 24959,
  "ours": 4874,
  "ourse": 9564,
  "ourt": 18293,
  "ous": 519,
  "ousand": 2441,
  "ousands": 23714,
  "ouse": 915,
  "oused": 20498,
  "ouses": 11472,
  "ousing": 26850,
  "ously": 2471,
  "oust": 14603,
  "ousy": 19390,
  "out": 412,
  "outh": 1153,
  "outheast": 21182,
  "outhed": 13474,
  "outhern": 6668,
  "outs": 6516,
  "ouver": 23738,
  "oux": 26704,
  "ov": 2881,
  "ova": 14539,
  "oval": 18325,
  "ovan": 14504,
  "ove": 593,
  "oved": 2992,
  "ovel": 29316,
  "over": 1812,
  "overe": 25521,
  "overed": 1734,
  "overing": 7640,
  "overnment": 24358,
  "overs": 13255,
  "overy": 6363,
  "oves": 7402,
  "oving": 7955,
  "ovy": 28450,
  "ow": 307,
  "owa": 18377,
  "oward": 23911,
  "owards": 28267,
  "owder": 28030,
  "owed": 901,
  "owell": 19979,
  "ower": 921,
  "owered": 14304,
  "owering": 15145,
  "owers": 2818,
  "owing": 1037,
  "owl": 23564,
  "own": 480,
  "owned": 15833,
  "owner": 26229,
  "owning": 28279,
  "ows": 1094,
  "owski": 24933,
  "ox": 3416,
  "oy": 730,
  "oya": 24534,
  "oyal": 4618,
  "oyd": 15330,
  "oyer": 13586,
  "oyle": 17894,
  "oys": 26950,
  "oz": 19113,
  "p": 84,
  "pa": 7467,
  "pace": 20719,
  "pack": 6685,
  "pad": 18875,
  "page": 23033,
  "pal": 26416,
  "pan": 4356,
  "pants": 26133,
  "pany": 12010,
  "paper": 20668,
  "par": 2578,
  "parable": 21138,
  "pare": 24239,
  "pared": 18405,
  "parent": 8135,
  "parents": 12248,
  "part": 8887,
  "pass": 10354,
  "passed": 22774,
  "passing": 20509,
  "pat": 10812,
  "path": 11781,
  "pathy": 25799,
  "patrick": 28676,
  "pbuh": 17095,
  "pdf": 21030,
  "pe": 1345,
  "peace": 21731,
  "peare": 17698,
  "pec": 2170,
  "pecially": 2360,
  "pect": 912,
  "pected": 3725,
  "pecting": 19261,
  "ped": 1151,
  "pen": 759,
  "pencer": 12954,
  "penet": 22740,
  "penetrable": 24846,
  "pens": 11703,
  "pense": 16020,
  "pension": 25993,
  "pent": 8499,
  "penter": 23910,
  "people": 14461,
  "per": 680,
  "perfect": 26322,
  "perhaps": 23151,
  "pering": 15419,
  "peror": 8709,
  "pers": 20145,
  "person": 12251,
  "personal": 28140,
  "pert": 19612,
  "pes": 3373,
  "pet": 4309,
  "ph": 1362,
  "pha": 3678,
  "phalt": 21035,
  "phan": 9148,
  "phant": 14919,
  "phants": 27987,
  "phas": 6180,
  "phazard": 24882,
  "pher": 10760,
  "pherd": 13765,
  "phia": 16354,
  "phone": 5391,
  "phones": 15216,
  "phrod": 23539,
  "phrodite": 26794,
  "phy": 15653,
  "pic": 3490,
  "pical": 20775,
  "picuous": 21238,
  "pid": 4134,
  "pie": 20479,
  "piece": 11883,
  "pill": 27100,
  "pin": 17555,
  "ping": 3473,
  "pion": 14843,
  "pions": 24655,
  "pipe": 28344,
  "pir": 4945,
  "piration": 9645,
  "pire": 7068,
  "pired": 7954,
  "piring": 13877,
  "pit": 9351,
  "pitched": 19015,
  "pite": 2787,
  "pl": 580,
  "place": 5785,
  "placed": 21282,
  "plain": 14771,
  "plan": 11857,
  "plane": 15686,
  "plant": 16649,
  "plate": 17233,
  "play": 3491,
  "ple": 951,
  "please": 19061,
  "pled": 6959,
  "plend": 29140,
  "ples": 2610,
  "pless": 6494,
  "plete": 10844,
  "plex": 9893,
  "plic": 16773,
  "pling": 14644,
  "ploy": 2956,
  "plus": 19570,
  "ply": 2013,
  "pm": 15173,
  "po": 7664,
  "point": 6972,
  "pol": 24270,
  "pool": 15757,
  "pop": 20217,
  "por": 2860,
  "porary": 12806,
  "port": 2553,
  "portant": 16967,
  "ported": 29580,
  "ports": 27303,
  "pose": 17868,
  "positive": 28215,
  "post": 13201,
  "pot": 17351,
  "pour": 26900,
  "power": 8672,
  "powered": 19005,
  "pp": 386,
  "pped": 651,
  "ppel": 28798,
  "pper": 2861,
  "ppers": 10831,
  "pping": 1260,
  "ppings": 22684,
  "ppy": 5122,
  "pr": 1226,
  "pre": 4944,
  "pread": 20210,
  "prene": 18468,
  "pres": 11755,
  "present": 19520,
  "press": 9459,
  "pression": 16584,
  "pret": 5588,
  "pretation": 16336,
  "pri": 3694,
  "pril": 6456,
  "pring": 8168,
  "print": 18166,
  "prints": 13330,
  "prise": 13311,
  "prised": 23346,
  "prises": 24183,
  "prising": 16405,
  "prisingly": 19923,
  "pro": 5337,
  "probably": 29515,
  "product": 19677,
  "prof": 19938,
  "profit": 28175,
  "prom": 20078,
  "proof": 15979,
  "prot": 16758,
  "protected": 27403,
  "ps": 804,
  "pse": 8199,
  "pses": 12324,
  "pson": 10178,
  "psy": 16284,
  "pt": 524,
  "pted": 6655,
  "ptember": 7383,
  "pter": 1368,
  "pth": 5598,
  "ptic": 11351,
  "ption": 2886,
  "ptions": 10604,
  "pton": 14908,
  "ptu": 25344,
  "ptuous": 21750,
  "pture": 15220,
  "pty": 22487,
  "pub": 27756,
  "public": 26520,
  "pur": 16264,
  "put": 5867,
  "puter": 15823,
  "puts": 23438,
  "py": 17051,
  "q": 85,
  "qu": 451,
  "qual": 17653,
  "quality": 29054,
  "quar": 8690,
  "quarters": 10446,
  "que": 2384,
  "queline": 17437,
  "quer": 16421,
  "ques": 12397,
  "quest": 25855,
  "quet": 11483,
  "quez": 27567,
  "qui": 26799,
  "quiet": 27951,
  "quila": 28749,
  "quin": 15171,
  "quis": 9050,
  "quisite": 13547,
  "quito": 19051,
  "quoise": 25312,
  "r": 86,
  "ra": 385,
  "rab": 4805,
  "rabbing": 18631,
  "rable": 13506,
  "rac": 17338,
  "race": 13102,
  "ract": 1632,
  "racted": 17784,
  "raction": 20417,
  "ractys": 18426,
  "rad": 6258,
  "rade": 26540,
  "rael": 3483,
  "raf": 27398,
  "raft": 4938,
  "rag": 3480,
  "rage": 3206,
  "raged": 10667,
  "ragon": 25898,
  "rah": 8989,
  "raham": 5508,
  "rahim": 21914,
  "raid": 2490,
  "rain": 5270,
  "raine": 22649,
  "rained": 8122,
  "raise": 27856,
  "rak": 12387,
  "ral": 2668,
  "ram": 3973,
  "raman": 23373,
  "rament": 26193,
  "ran": 3642,
  "rance": 16995,
  "rand": 2588,
  "rane": 11487,
  "ranean": 16911,
  "range": 14502,
  "ranny": 23510,
  "rans": 24567,
  "rant": 5425,
  "rants": 11848,
  "rap": 2913,
  "rape": 11459,
  "raph": 4116,
  "raphic": 20808,
  "rapped": 17677,
  "rary": 11566,
  "ras": 7925,
  "rast": 15110,
  "rat": 6833,
  "rate": 3682,
  "rated": 3306,
  "rates": 11181,
  "rating": 5937,
  "ration": 2602,
  "rational": 13360,
  "rations": 8215,
  "rative": 13745,
  "rator": 15579,
  "rators": 18571,
  "ratulations": 19844,
  "raught": 19299,
  "rav": 29758,
  "raved": 19030,
  "raw": 4572,
  "rawing": 26846,
  "rawn": 21304,
  "ray": 2530,
  "rays": 29013,
  "rd": 10630,
  "re": 268,
  "rea": 20634,
  "read": 1883,
  "reading": 22902,
  "reads": 29231,
  "ready": 1178,
  "real": 11521,
  "really": 17379,
  "ream": 1011,
  "reams": 25132,
  "reat": 574,
  "reated": 14880,
  "reath": 26278,
  "reatic": 21406,
  "reating": 24360,
  "reatment": 29214,
  "rec": 12203,
  "reci": 27334,
  "reck": 29153,
  "rect": 2731,
  "rection": 6450,
  "red": 389,
  "redict": 15687,
  "redit": 20448,
  "ree": 660,
  "reed": 1808,
  "reedom": 13694,
  "reek": 4209,
  "reement": 18268,
  "reen": 1481,
  "rees": 7041,
  "reet": 2726,
  "ref": 18848,
  "reg": 2746,
  "regn": 21938,
  "regon": 19939,
  "regular": 19403,
  "regulated": 20786,
  "regulation": 21613,
  "rel": 2975,
  "related": 10363,
  "religious": 29780,
  "rell": 11072,
  "rella": 16042,
  "rely": 3187,
  "rem": 7895,
  "reme": 3209,
  "remes": 28260,
  "remon": 28255,
  "ren": 1013,
  "renal": 10147,
  "rence": 6626,
  "rench": 4229,
  "renched": 10869,
  "renches": 26514,
  "renching": 20201,
  "rency": 15071,
  "rend": 14068,
  "rene": 14263,
  "rent": 2159,
  "rentice": 29795,
  "reon": 28295,
  "rep": 18780,
  "requ": 13467,
  "requency": 18075,
  "rer": 9526,
  "rers": 20586,
  "res": 479,
  "resa": 9927,
  "resent": 19502,
  "resh": 2716,
  "resist": 14797,
  "resistant": 28730,
  "resp": 6372,
  "respect": 12320,
  "respond": 9496,
  "respons": 16787,
  "ress": 647,
  "ressed": 1416,
  "resses": 19190,
  "ressing": 7129,
  "ression": 1709,
  "ressive": 14176,
  "rest": 2944,
  "reston": 13326,
  "restrial": 23735,
  "ret": 1083,
  "retch": 24801,
  "retched": 8628,
  "rete": 5916,
  "retion": 18138,
  "rets": 24321,
  "rett": 7597,
  "retty": 12328,
  "rew": 1065,
  "rey": 2085,
  "ri": 359,
  "ria": 6165,
  "riad": 19347,
  "riage": 3379,
  "riages": 16196,
  "riah": 21248,
  "rial": 7398,
  "rian": 3111,
  "riana": 21921,
  "rianna": 16777,
  "rians": 18789,
  "rib": 3078,
  "rible": 3125,
  "ribly": 9041,
  "ribut": 4635,
  "ribute": 8943,
  "ributed": 8193,
  "ributes": 13824,
  "ribution": 7373,
  "ric": 1356,
  "rical": 8600,
  "ricane": 17959,
  "rice": 13022,
  "rich": 9790,
  "ricia": 15820,
  "rick": 4121,
  "rics": 13975,
  "rict": 6130,
  "ricted": 13123,
  "riction": 29777,
  "rid": 3439,
  "ride": 18879,
  "ridge": 16487,
  "rie": 1650,
  "ried": 817,
  "rief": 2379,
  "riel": 4602,
  "rien": 17167,
  "riend": 893,
  "rient": 12357,
  "rients": 22841,
  "rier": 5323,
  "riers": 12578,
  "ries": 2261,
  "riet": 15341,
  "riety": 28302,
  "rieve": 28959,
  "rieved": 22407,
  "rif": 2367,
  "rife": 24159,
  "riff": 5057,
  "rific": 13051,
  "rifice": 20340,
  "rified": 5202,
  "rift": 18615,
  "rifying": 9560,
  "rig": 2074,
  "rigan": 27191,
  "riger": 11961,
  "rigg": 10947,
  "riggs": 27561,
  "right": 604,
  "righteous": 18666,
  "rik": 7909,
  "rika": 21318,
  "rike": 18351,
  "ril": 10165,
  "rill": 3349,
  "rils": 21876,
  "rily": 7442,
  "rim": 4803,
  "riment": 29512,
  "rimmed": 26768,
  "rimp": 27611,
  "rin": 4123,
  "rina": 9359,
  "rine": 9136,
  "ring": 2163,
  "rings": 18899,
  "rington": 28409,
  "rinth": 21383,
  "rio": 26052,
  "rior": 15045,
  "riot": 14953,
  "riots": 24015,
  "rious": 27978,
  "rip": 16871,
  "ripp": 12898,
  "ris": 2667,
  "rise": 11499,
  "rising": 28668,
  "rist": 1112,
  "ristan": 6610,
  "ristol": 22674,
  "risy": 27290,
  "rit": 2935,
  "riters": 24025,
  "rites": 18701,
  "ritical": 22331,
  "rition": 14019,
  "rium": 16779,
  "rius": 25160,
  "rive": 9079,
  "rived": 13702,
  "river": 24394,
  "riving": 12953,
  "rix": 12226,
  "ro": 346,
  "road": 9838,
  "roads": 21551,
  "rob": 23034,
  "robe": 12055,
  "roc": 10003,
  "rock": 22672,
  "rod": 11218,
  "rodu": 2934,
  "roduct": 16364,
  "roduction": 15414,
  "roe": 18873,
  "rog": 4615,
  "rogen": 15926,
  "roid": 12940,
  "roit": 22176,
  "rol": 1539,
  "roll": 2286,
  "rolled": 4715,
  "roller": 19976,
  "rolling": 7689,
  "rom": 2631,
  "romagnetic": 21489,
  "rome": 12583,
  "ron": 2242,
  "rone": 16495,
  "ronic": 6896,
  "rons": 10628,
  "ront": 5942,
  "room": 1628,
  "rop": 3269,
  "roph": 13956,
  "rophe": 20240,
  "rophic": 26407,
  "ropri": 13060,
  "rops": 29195,
  "ror": 1892,
  "rored": 19961,
  "rors": 7710,
  "ros": 6559,
  "rose": 9373,
  "ross": 943,
  "rossed": 15829,
  "rost": 14189,
  "rot": 9605,
  "rou": 404,
  "roud": 3804,
  "rouded": 21381,
  "rough": 630,
  "rought": 1652,
  "round": 554,
  "roup": 9614,
  "roups": 29602,
  "rous": 6808,
  "rousal": 21990,
  "rov": 28622,
  "rove": 12219,
  "rovers": 15018,
  "row": 1250,
  "rowing": 17297,
  "rows": 26662,
  "rowth": 14930,
  "roy": 2658,
  "rr": 11845,
  "rs": 5079,
  "ru": 578,
  "ruce": 8760,
  "ruciating": 19548,
  "ruck": 17145,
  "ruct": 2559,
  "ruction": 3650,
  "ructive": 13358,
  "ructor": 15661,
  "ructure": 13530,
  "rud": 6705,
  "rude": 20277,
  "rudence": 26523,
  "rue": 6318,
  "rug": 3136,
  "rugg": 26265,
  "ruit": 19110,
  "ruly": 17117,
  "rum": 4984,
  "rument": 11035,
  "rums": 20234,
  "run": 10091,
  "rup": 14599,
  "rupt": 2142,
  "rupted": 29914,
  "rus": 10527,
  "rust": 14555,
  "rut": 20203,
  "ruti": 26501,
  "ry": 496,
  "rying": 7308,
  "ryn": 12504,
  "rys": 18940,
  "rystal": 22742,
  "rÃ©": 27815,
  "s": 87,
  "sa": 8312,
  "sac": 22039,
  "said": 28023,
  "sal": 10867,
  "sall": 26329,
  "salm": 8655,
  "salms": 16849,
  "salÃ¢m": 26518,
  "san": 26598,
  "sat": 21915,
  "sc": 2907,
  "scale": 18901,
  "scape": 7733,
  "scar": 12072,
  "sche": 28714,
  "school": 21341,
  "science": 22750,
  "screen": 16990,
  "se": 349,
  "sea": 11700,
  "seat": 17794,
  "sec": 4517,
  "second": 18231,
  "secret": 27577,
  "sect": 6784,
  "section": 11599,
  "sed": 2133,
  "see": 5632,
  "seeing": 17309,
  "seen": 8701,
  "sel": 1361,
  "self": 612,
  "sell": 7879,
  "selling": 23616,
  "sels": 21865,
  "selves": 1562,
  "semb": 6086,
  "semble": 16471,
  "sembly": 21653,
  "sen": 9578,
  "send": 23167,
  "sent": 24396,
  "sequ": 3893,
  "sequently": 18928,
  "ser": 17537,
  "serv": 21531,
  "ses": 3280,
  "set": 2928,
  "sett": 13280,
  "seus": 15626,
  "seven": 14373,
  "sex": 17084,
  "sey": 6379,
  "sh": 1910,
  "sha": 6804,
  "shaped": 11665,
  "shar": 25320,
  "she": 4696,
  "sher": 25656,
  "shield": 14986,
  "shine": 9660,
  "ship": 3565,
  "ships": 16074,
  "shirt": 7436,
  "shirts": 24024,
  "shit": 8691,
  "sho": 26602,
  "shore": 25789,
  "shot": 9236,
  "shots": 23595,
  "should": 18273,
  "show": 29887,
  "si": 20428,
  "side": 783,
  "sided": 24065,
  "sidered": 3036,
  "sign": 27842,
  "sil": 24756,
  "sim": 23234,
  "sin": 22940,
  "since": 27382,
  "sing": 2816,
  "sion": 5226,
  "sis": 16198,
  "sit": 3218,
  "sive": 4501,
  "six": 13067,
  "size": 24716,
  "sized": 8189,
  "sk": 18608,
  "skin": 16339,
  "skinned": 21415,
  "sky": 20638,
  "sl": 10027,
  "slaught": 20654,
  "slee": 26679,
  "sm": 5852,
  "small": 23813,
  "smith": 18685,
  "sn": 29625,
  "so": 824,
  "soaked": 28171,
  "soever": 10917,
  "soft": 21972,
  "sold": 15290,
  "sole": 9222,
  "some": 9107,
  "someone": 28284,
  "somet": 10612,
  "something": 11949,
  "son": 2110,
  "sp": 4687,
  "space": 20037,
  "spe": 13560,
  "spec": 13109,
  "special": 29935,
  "specific": 19122,
  "spect": 5250,
  "spector": 14015,
  "speed": 27479,
  "spir": 29098,
  "spl": 20800,
  "spoken": 28037,
  "spring": 12268,
  "ss": 818,
  "ssa": 11823,
  "st": 351,
  "staff": 29164,
  "stage": 18862,
  "stained": 20761,
  "stairs": 3895,
  "stal": 4859,
  "stan": 17072,
  "stanbul": 25451,
  "stand": 6926,
  "standing": 7604,
  "stant": 22337,
  "star": 12536,
  "start": 26828,
  "state": 12709,
  "status": 24628,
  "ste": 5228,
  "steady": 23178,
  "stein": 9613,
  "stem": 1765,
  "sten": 29413,
  "step": 12015,
  "steps": 6598,
  "ster": 2245,
  "stered": 22186,
  "sters": 6592,
  "stick": 11836,
  "sticks": 28697,
  "still": 17927,
  "stock": 29473,
  "ston": 5698,
  "stone": 7099,
  "stones": 20769,
  "stood": 13920,
  "stop": 14572,
  "store": 17542,
  "storm": 13023,
  "story": 15660,
  "str": 10643,
  "stra": 13909,
  "stre": 23792,
  "stream": 9762,
  "stretched": 12228,
  "stri": 8854,
  "string": 28165,
  "strom": 23204,
  "strong": 17428,
  "struck": 27221,
  "struct": 18121,
  "struction": 27279,
  "style": 16078,
  "su": 22572,
  "sub": 17373,
  "such": 19821,
  "suff": 28332,
  "suit": 26934,
  "sun": 21285,
  "super": 27522,
  "supp": 20470,
  "sur": 17463,
  "sure": 23939,
  "sw": 1089,
  "swald": 28958,
  "swer": 17943,
  "sword": 25038,
  "sworth": 25016,
  "sy": 2473,
  "sych": 3482,
  "syl": 18807,
  "sylvania": 19281,
  "system": 27474,
  "t": 88,
  "ta": 4194,
  "table": 19476,
  "tail": 9724,
  "tails": 25077,
  "tain": 3918,
  "tained": 6608,
  "taining": 9561,
  "tains": 23990,
  "take": 17169,
  "taking": 16347,
  "tal": 28068,
  "tale": 20007,
  "talk": 21795,
  "tan": 13149,
  "tar": 15886,
  "te": 764,
  "tech": 26840,
  "ted": 705,
  "tee": 22309,
  "teen": 2855,
  "teenth": 15168,
  "tegr": 15647,
  "tell": 24026,
  "teller": 27911,
  "telling": 22443,
  "tem": 23099,
  "ten": 1499,
  "tenance": 11120,
  "ter": 378,
  "terday": 4314,
  "tered": 2238,
  "tering": 3237,
  "term": 9343,
  "tern": 1451,
  "ternal": 7586,
  "ters": 1286,
  "terson": 24952,
  "tery": 9049,
  "tes": 13616,
  "text": 19601,
  "th": 563,
  "than": 4700,
  "thank": 23436,
  "that": 3849,
  "the": 1507,
  "their": 16671,
  "thel": 26884,
  "theless": 8070,
  "them": 16847,
  "then": 6455,
  "ther": 535,
  "there": 8420,
  "these": 24440,
  "they": 6591,
  "thias": 29594,
  "thin": 26321,
  "thing": 720,
  "things": 22836,
  "think": 18159,
  "thinking": 29225,
  "third": 20678,
  "thirty": 16706,
  "this": 6898,
  "thm": 7433,
  "thodox": 21689,
  "thon": 29524,
  "thood": 22223,
  "those": 19007,
  "though": 2012,
  "thought": 16535,
  "thousand": 26886,
  "thouse": 24127,
  "three": 11485,
  "thren": 10598,
  "through": 12096,
  "ths": 18212,
  "thur": 6891,
  "ti": 10546,
  "tic": 10420,
  "tical": 8748,
  "tically": 18968,
  "tie": 25894,
  "ties": 7356,
  "tight": 24653,
  "til": 21533,
  "time": 3748,
  "times": 29757,
  "tin": 18847,
  "ting": 716,
  "tion": 9297,
  "tis": 24939,
  "tle": 4567,
  "tles": 23473,
  "to": 1195,
  "together": 29388,
  "tok": 26281,
  "told": 24898,
  "ton": 1592,
  "too": 16962,
  "top": 8629,
  "tor": 11629,
  "town": 8163,
  "tr": 6621,
  "tra": 13284,
  "track": 26506,
  "trans": 17217,
  "tre": 26051,
  "tree": 27791,
  "truth": 25489,
  "try": 21326,
  "ts": 1328,
  "tsu": 18759,
  "tsy": 26135,
  "tt": 3175,
  "tta": 17199,
  "tte": 18340,
  "ttp": 5527,
  "ttps": 10132,
  "tub": 22024,
  "tumor": 23633,
  "turn": 23308,
  "turned": 21272,
  "tw": 9902,
  "twitter": 22450,
  "two": 8753,
  "ty": 828,
  "type": 14097,
  "types": 26589,
  "tz": 23715,
  "u": 89,
  "ua": 5073,
  "ual": 966,
  "uality": 10215,
  "ually": 975,
  "uan": 12648,
  "uana": 18039,
  "uary": 5524,
  "uate": 13329,
  "uated": 11542,
  "uating": 20293,
  "uation": 11835,
  "ub": 861,
  "uba": 25745,
  "ubb": 4809,
  "ubba": 21878,
  "ubble": 8462,
  "ubborn": 8918,
  "ubby": 15458,
  "ube": 11398,
  "uben": 18393,
  "uber": 19283,
  "ublic": 5500,
  "ublished": 16162,
  "uburn": 24622,
  "uc": 1007,
  "ucc": 25015,
  "uccess": 11293,
  "uce": 7040,
  "uced": 8329,
  "ucent": 22368,
  "uces": 18215,
  "uch": 724,
  "uche": 22507,
  "uchess": 24528,
  "ucing": 12312,
  "uck": 994,
  "ucked": 3564,
  "ucker": 10037,
  "uckily": 11279,
  "ucking": 3021,
  "uckle": 25586,
  "ucks": 13307,
  "ucky": 7810,
  "uclear": 20320,
  "uct": 2937,
  "uctantly": 24205,
  "uction": 9966,
  "uctor": 25275,
  "ud": 605,
  "uda": 18353,
  "udd": 3128,
  "udden": 4503,
  "uddenly": 4595,
  "udder": 12377,
  "uddle": 10848,
  "uddled": 8886,
  "uddles": 21683,
  "uddling": 24370,
  "ude": 2168,
  "uded": 12277,
  "udes": 9659,
  "udge": 13959,
  "udi": 14482,
  "udic": 24671,
  "udicrous": 26636,
  "uding": 25131,
  "udo": 19546,
  "udy": 15134,
  "ue": 726,
  "ued": 1326,
  "uel": 3444,
  "uela": 29983,
  "ueless": 24271,
  "uer": 13580,
  "uers": 23484,
  "ues": 1759,
  "uesday": 9311,
  "uese": 26645,
  "uez": 29659,
  "uf": 5828,
  "ufact": 9557,
  "uff": 1384,
  "uffed": 10931,
  "ufficient": 18844,
  "uffle": 16629,
  "uffled": 6043,
  "uffling": 26045,
  "uffs": 10967,
  "uffy": 14530,
  "ug": 1664,
  "ugar": 18033,
  "uge": 6699,
  "ugg": 4746,
  "ugged": 12857,
  "ugger": 28699,
  "ugging": 21944,
  "ugh": 24218,
  "ught": 5624,
  "ugs": 7767,
  "ugust": 6186,
  "uh": 5139,
  "ui": 7693,
  "uild": 10357,
  "uin": 24303,
  "uine": 6160,
  "uing": 3858,
  "uish": 8440,
  "uished": 11811,
  "uit": 2838,
  "uition": 27861,
  "uitive": 26572,
  "uits": 6635,
  "uity": 16299,
  "uj": 13813,
  "uk": 4025,
  "uka": 26856,
  "uke": 2779,
  "ukhari": 26058,
  "uki": 17541,
  "uku": 28874,
  "ul": 427,
  "ula": 6037,
  "ular": 1366,
  "ulars": 14647,
  "ulate": 5130,
  "ulated": 4653,
  "ulates": 21929,
  "ulating": 7261,
  "ulation": 2882,
  "ulations": 6285,
  "ulative": 17509,
  "ulator": 24298,
  "ulatory": 27784,
  "ule": 2753,
  "uled": 7301,
  "ulent": 19522,
  "ules": 9928,
  "ulet": 18406,
  "ulf": 3651,
  "uling": 28087,
  "ulk": 19650,
  "ulking": 24346,
  "ull": 598,
  "ullah": 14215,
  "ulled": 18119,
  "ullen": 13509,
  "ulling": 11246,
  "ullivan": 20820,
  "ulls": 27548,
  "ully": 1191,
  "ulous": 4608,
  "ulously": 9405,
  "uls": 13829,
  "ulsed": 23127,
  "ulsion": 11825,
  "ulsive": 20653,
  "ult": 888,
  "ultan": 22948,
  "ulties": 27599,
  "ults": 9326,
  "ultural": 10270,
  "ulture": 8352,
  "ultures": 29431,
  "ulty": 6673,
  "ulu": 12609,
  "ulum": 18241,
  "ulus": 24002,
  "uly": 21539,
  "um": 439,
  "uma": 9067,
  "umab": 28679,
  "uman": 4420,
  "umar": 25651,
  "umas": 27451,
  "umb": 1238,
  "umbed": 14400,
  "umber": 1675,
  "umbered": 15490,
  "umbers": 12494,
  "umbing": 20669,
  "umble": 7886,
  "umbled": 2759,
  "umbles": 13128,
  "umbling": 5016,
  "umbo": 23734,
  "umbs": 19728,
  "ume": 2708,
  "umed": 3387,
  "umen": 25495,
  "ument": 3519,
  "umented": 19849,
  "uments": 6171,
  "umer": 4893,
  "umerable": 26953,
  "umes": 7622,
  "umi": 16768,
  "umin": 9462,
  "uming": 6135,
  "uminous": 20171,
  "umm": 11409,
  "ummer": 20070,
  "ummy": 14538,
  "umn": 6544,
  "umns": 15315,
  "umor": 12561,
  "ump": 1697,
  "umped": 2244,
  "umper": 23892,
  "umph": 11631,
  "umping": 6910,
  "umps": 5641,
  "umption": 8487,
  "umptions": 17003,
  "umpy": 18246,
  "ums": 6737,
  "umsy": 17366,
  "un": 418,
  "una": 8030,
  "unal": 20568,
  "unch": 2066,
  "unched": 6572,
  "unches": 19317,
  "unching": 11812,
  "unci": 19188,
  "unciation": 24645,
  "unct": 16521,
  "unction": 8204,
  "und": 1802,
  "unda": 29243,
  "under": 4172,
  "undered": 18819,
  "undred": 11022,
  "undy": 21875,
  "une": 2678,
  "uned": 28200,
  "ung": 1175,
  "ungal": 19905,
  "ungle": 9740,
  "unior": 8575,
  "unk": 2314,
  "unken": 10795,
  "unks": 9817,
  "unky": 29583,
  "unless": 29566,
  "unn": 16241,
  "unned": 22809,
  "unning": 8561,
  "unny": 11173,
  "uno": 16498,
  "uns": 14646,
  "unt": 1998,
  "untarily": 15149,
  "untary": 14214,
  "unte": 6835,
  "unted": 5479,
  "unter": 17421,
  "untered": 20647,
  "until": 20937,
  "unting": 8489,
  "unts": 11276,
  "unty": 22673,
  "unzel": 29708,
  "uous": 5152,
  "uously": 17160,
  "up": 1076,
  "upe": 20141,
  "uper": 10001,
  "upert": 20526,
  "upid": 2897,
  "upiter": 17651,
  "upon": 19618,
  "upp": 9615,
  "ups": 10912,
  "ur": 339,
  "ura": 4973,
  "urable": 13627,
  "urai": 26469,
  "ural": 1962,
  "urally": 5799,
  "urance": 5721,
  "uras": 23206,
  "urate": 24491,
  "urated": 21522,
  "uration": 11030,
  "urb": 12694,
  "urbed": 17903,
  "urch": 2008,
  "urches": 9266,
  "urd": 7322,
  "urday": 5716,
  "urdy": 16721,
  "ure": 567,
  "ureau": 11006,
  "ured": 1316,
  "ureen": 24289,
  "urel": 20985,
  "uren": 21358,
  "ures": 1322,
  "urg": 11191,
  "uri": 12123,
  "uria": 22265,
  "uries": 5010,
  "uring": 1358,
  "urious": 15154,
  "urities": 19823,
  "urity": 2608,
  "urn": 556,
  "urned": 9360,
  "urning": 5919,
  "uro": 20241,
  "urous": 19248,
  "urrection": 20266,
  "urred": 12319,
  "urrent": 15920,
  "urry": 10069,
  "urs": 4808,
  "ursday": 9556,
  "urt": 6015,
  "uru": 11241,
  "urus": 28545,
  "ury": 2646,
  "us": 319,
  "usa": 20917,
  "usal": 16086,
  "usalem": 7477,
  "usc": 19421,
  "uscript": 14872,
  "use": 2251,
  "used": 1564,
  "usement": 9589,
  "user": 24225,
  "uses": 6321,
  "ush": 1553,
  "ushed": 1444,
  "ushes": 7195,
  "ushi": 26318,
  "ushing": 2692,
  "usiness": 11046,
  "using": 5064,
  "usion": 2558,
  "usions": 12593,
  "usive": 12859,
  "usk": 12250,
  "uss": 1641,
  "ussed": 16890,
  "ussion": 15734,
  "ussions": 25522,
  "ussy": 10645,
  "ust": 409,
  "ustain": 22181,
  "usted": 3177,
  "uster": 7387,
  "ustered": 14478,
  "usters": 16230,
  "ustin": 14636,
  "usting": 5745,
  "ustom": 3303,
  "ustomed": 11448,
  "ustrated": 27523,
  "ustroph": 28056,
  "usty": 13258,
  "ut": 311,
  "utable": 17978,
  "utation": 7841,
  "utch": 10390,
  "ute": 1638,
  "uted": 5603,
  "uten": 6107,
  "utenant": 6563,
  "uteron": 21824,
  "uteronomy": 22020,
  "utes": 7596,
  "uth": 1111,
  "uther": 12655,
  "uthor": 2209,
  "uthors": 10448,
  "utic": 11287,
  "utical": 22781,
  "uties": 27481,
  "uting": 13678,
  "ution": 1775,
  "utions": 6738,
  "utive": 9051,
  "uto": 19869,
  "utor": 18392,
  "uts": 4540,
  "utt": 14549,
  "utted": 18077,
  "utter": 10621,
  "uttered": 7959,
  "uttering": 12901,
  "utting": 16531,
  "uture": 15867,
  "uty": 9314,
  "uu": 20811,
  "uv": 11926,
  "uven": 28709,
  "ux": 5098,
  "uy": 13700,
  "uz": 7862,
  "uzz": 8563,
  "uzzle": 18074,
  "uzzy": 15201,
  "uÄŁ": 29040,
  "uÅŁ": 29257,
  "v": 90,
  "va": 4130,
  "vable": 9984,
  "vably": 25767,
  "vado": 28853,
  "vag": 20945,
  "vah": 14283,
  "val": 2694,
  "vals": 11819,
  "van": 5738,
  "vana": 28802,
  "vance": 17002,
  "vania": 18173,
  "vant": 6812,
  "vantage": 26479,
  "var": 15053,
  "vard": 13081,
  "varez": 27258,
  "vas": 9195,
  "vasive": 26122,
  "vat": 20158,
  "vate": 13472,
  "vation": 5206,
  "ve": 314,
  "ved": 583,
  "vel": 908,
  "veland": 28356,
  "velation": 5599,
  "veled": 9991,
  "vell": 15889,
  "velled": 21696,
  "velop": 1821,
  "velt": 23435,
  "ven": 503,
  "venant": 8716,
  "venge": 27423,
  "vent": 3996,
  "venth": 27110,
  "vention": 9112,
  "ventions": 28616,
  "venty": 10644,
  "venue": 10718,
  "ver": 336,
  "verage": 5420,
  "verb": 18923,
  "verbs": 15765,
  "vere": 5015,
  "vered": 14958,
  "verend": 16981,
  "vern": 2179,
  "vers": 988,
  "verse": 6144,
  "versely": 22623,
  "version": 16458,
  "vert": 4897,
  "verted": 7487,
  "verty": 10709,
  "very": 511,
  "ves": 685,
  "vest": 5367,
  "vet": 8994,
  "vette": 24385,
  "vey": 4491,
  "veyard": 19999,
  "vi": 7798,
  "via": 11699,
  "vial": 14938,
  "vice": 16415,
  "vid": 19382,
  "vie": 13481,
  "viet": 11367,
  "vieve": 24406,
  "view": 3604,
  "vil": 24867,
  "ville": 7351,
  "vin": 4943,
  "vine": 26576,
  "ving": 601,
  "viol": 27232,
  "vious": 23105,
  "viously": 8814,
  "vironment": 13432,
  "vis": 4749,
  "vised": 17855,
  "vision": 4991,
  "visor": 14840,
  "vit": 13223,
  "vity": 7061,
  "vo": 10008,
  "voc": 15669,
  "voice": 23673,
  "vol": 9737,
  "volence": 28684,
  "volent": 18434,
  "von": 16763,
  "vonne": 20866,
  "vor": 7591,
  "vous": 11133,
  "vously": 29681,
  "voy": 28732,
  "vy": 6426,
  "w": 91,
  "wa": 11127,
  "wait": 21899,
  "wal": 16573,
  "walk": 6568,
  "walker": 26225,
  "walks": 24928,
  "wall": 13543,
  "wan": 11122,
  "want": 24861,
  "war": 5619,
  "ward": 672,
  "wards": 2634,
  "ware": 5559,
  "warm": 26352,
  "wart": 17793,
  "was": 6581,
  "washer": 29694,
  "watch": 21430,
  "water": 9965,
  "wave": 26399,
  "way": 531,
  "wayne": 26414,
  "ways": 942,
  "we": 916,
  "wealth": 22084,
  "wear": 24757,
  "web": 28558,
  "webs": 26262,
  "wed": 23340,
  "weed": 19323,
  "week": 22428,
  "ween": 1105,
  "weet": 8545,
  "weh": 11372,
  "weight": 12861,
  "well": 2902,
  "welt": 25033,
  "wen": 5940,
  "wer": 24871,
  "were": 15445,
  "west": 11073,
  "western": 23538,
  "wh": 9153,
  "what": 3274,
  "whatever": 24504,
  "wheel": 26169,
  "when": 10584,
  "where": 1599,
  "which": 7714,
  "while": 6469,
  "white": 12680,
  "who": 8877,
  "why": 12064,
  "wi": 25647,
  "wich": 24453,
  "wick": 14875,
  "wide": 9805,
  "wife": 15805,
  "wig": 27803,
  "will": 8759,
  "win": 5088,
  "wind": 9791,
  "wing": 16956,
  "wire": 29522,
  "wise": 3246,
  "wit": 27178,
  "with": 5911,
  "without": 21602,
  "withstanding": 29138,
  "wl": 14993,
  "wn": 687,
  "wny": 20130,
  "wo": 2425,
  "wolf": 28882,
  "woman": 15257,
  "won": 29967,
  "wood": 4470,
  "wor": 7204,
  "word": 9950,
  "words": 6939,
  "work": 3099,
  "workers": 22930,
  "working": 16395,
  "works": 9667,
  "world": 8739,
  "worldly": 29934,
  "worn": 26648,
  "worth": 11348,
  "worthy": 15827,
  "would": 15392,
  "wr": 8029,
  "wright": 26429,
  "writer": 27060,
  "writing": 16823,
  "written": 21335,
  "ws": 16819,
  "ww": 3395,
  "www": 6217,
  "wy": 17852,
  "wyn": 13571,
  "x": 92,
  "xed": 21350,
  "xt": 867,
  "xties": 23306,
  "xton": 18616,
  "xture": 9317,
  "xx": 14833,
  "xy": 6841,
  "xygen": 9316,
  "y": 93,
  "ya": 3707,
  "yah": 22075,
  "yan": 9776,
  "yard": 8962,
  "yd": 28003,
  "ye": 4844,
  "yeah": 27997,
  "year": 5442,
  "years": 23856,
  "yen": 21902,
  "yer": 6008,
  "yers": 12742,
  "yes": 7637,
  "yet": 18309,
  "ying": 1341,
  "yl": 3010,
  "ylan": 7982,
  "yle": 2922,
  "ylie": 23468,
  "ylon": 11176,
  "ylum": 22686,
  "ym": 4961,
  "ymph": 12910,
  "yn": 2586,
  "ynn": 19588,
  "yon": 14266,
  "yond": 2404,
  "you": 3022,
  "your": 10230,
  "yr": 9431,
  "yre": 29509,
  "ys": 1314,
  "ysis": 5014,
  "yson": 13184,
  "yss": 16870,
  "yt": 9768,
  "ythag": 17016,
  "ythagorean": 18043,
  "z": 94,
  "za": 6512,
  "zan": 20886,
  "zar": 17322,
  "zard": 9920,
  "zards": 23485,
  "ze": 1880,
  "zech": 27731,
  "zed": 3297,
  "zek": 28316,
  "zel": 11444,
  "zen": 3235,
  "zens": 9675,
  "zer": 9388,
  "zes": 11193,
  "zi": 11995,
  "zia": 29855,
  "zie": 8870,
  "zied": 26877,
  "zil": 13097,
  "zing": 4838,
  "zo": 11690,
  "zona": 16605,
  "zone": 29612,
  "zu": 27879,
  "zy": 2056,
  "zz": 2509,
  "zzle": 20067,
  "zzled": 21656,
  "zzy": 12994,
  "{": 95,
  "|": 96,
  "}": 97,
  "~": 98,
  "~~": 17668,
  "¡": 99,
  "¢": 100,
  "£": 101,
  "¤": 102,
  "¥": 103,
  "¦": 104,
  "§": 105,
  "§a": 25144,
  "¨": 106,
  "©": 107,
  "©ng": 29800,
  "ª": 108,
  "«": 109,
  "¬": 110,
  "®": 111,
  "¯": 112,
  "°": 113,
  "±": 114,
  "±ÙĦ": 13207,
  "²": 115,
  "³": 116,
  "´": 117,
  "µ": 118,
  "¶": 119,
  "·": 120,
  "¸": 121,
  "¹": 122,
  "º": 123,
  "»": 124,
  "¼": 125,
  "½": 126,
  "¾": 127,
  "¿": 128,
  "À": 129,
  "Á": 130,
  "Â": 131,
  "Â«": 11791,
  "Â®": 23246,
  "Â°": 25879,
  "Â±": 28014,
  "Â´": 15939,
  "Â·": 2035,
  "Â»": 9954,
  "ÂŃ": 20984,
  "Ã": 132,
  "Ã¡": 4513,
  "Ã¡n": 19238,
  "Ã¡s": 25873,
  "Ã¢": 2191,
  "Ã¢b": 22856,
  "Ã¢d": 21685,
  "Ã¢h": 19670,
  "Ã¢hu": 10815,
  "Ã¢l": 9298,
  "Ã¢lÃ¢": 11098,
  "Ã¢m": 9915,
  "Ã¢n": 9386,
  "Ã¢t": 16595,
  "Ã¢y": 19757,
  "Ã¢z": 22200,
  "Ã£": 7296,
  "Ã£o": 8588,
  "Ã¤": 6859,
  "Ã¥": 17234,
  "Ã§": 5961,
  "Ã§a": 28715,
  "Ã§Ã£o": 20731,
  "Ã¨": 11242,
  "Ã¨re": 26753,
  "Ã©": 2389,
  "Ã©e": 22594,
  "Ã©m": 29476,
  "Ã©n": 26667,
  "Ã©r": 27147,
  "Ã©s": 15138,
  "Ãª": 9100,
  "Ãªn": 15236,
  "Ã«": 19779,
  "Ã¬": 13124,
  "Ã¬nh": 24658,
  "Ã®": 4713,
  "Ã®f": 25127,
  "Ã®m": 22910,
  "Ã®n": 24957,
  "Ã¯": 16997,
  "Ã¯ve": 19394,
  "Ã±": 11039,
  "Ã±a": 27615,
  "Ã±or": 29957,
  "Ã²": 19393,
  "Ã³": 5519,
  "Ã³n": 17188,
  "Ã´": 8827,
  "Ã´i": 19401,
  "Ã´ng": 15999,
  "Ã¶": 5509,
  "Ã¶n": 25103,
  "Ã¶r": 17103,
  "Ã¹": 22786,
  "Ãº": 12140,
  "Ã»": 8594,
  "Ã»l": 24586,
  "Ã¼": 3474,
  "Ã¼k": 22205,
  "Ã¼n": 13739,
  "Ã¼r": 14496,
  "Ã¾": 20389,
  "ÃŁ": 26610,
  "Ãł": 5854,
  "ÃŃ": 6630,
  "ÃŃa": 18941,
  "ÃŃn": 26994,
  "Ä": 133,
  "Ä«": 12995,
  "Ä±": 2735,
  "Ä±k": 16138,
  "Ä±l": 17656,
  "Ä±m": 23649,
  "Ä±n": 8775,
  "Ä±nda": 29035,
  "Ä±r": 12260,
  "Ä±y": 28712,
  "Ä±z": 21994,
  "Ä±ÄŁ": 24726,
  "Ä±ÅŁ": 18095,
  "Äģ": 5646,
  "Äĥ": 19992,
  "Äħ": 14648,
  "Äĩ": 16318,
  "ÄĻ": 11702,
  "ÄŁ": 7399,
  "Å": 134,
  "Å¡": 26651,
  "Å«": 25486,
  "Å¼": 18888,
  "ÅĤ": 8021,
  "ÅĤa": 24293,
  "ÅĤem": 21412,
  "Åį": 21893,
  "ÅĽ": 13641,
  "ÅŁ": 5404,
  "Æ": 135,
  "Æ¡": 18714,
  "Æ°": 7754,
  "Æ°á»": 10710,
  "Æ°á»£": 25211,
  "Æ°á»£c": 28966,
  "Æ°á»Ľ": 28700,
  "Æ°á»Ŀi": 22491,
  "Ç": 136,
  "È": 137,
  "É": 138,
  "ÉĻ": 9011,
  "Ê": 139,
  "Ë": 140,
  "Ì": 141,
  "Í": 142,
  "Î": 143,
  "Î¬": 12143,
  "Î®": 23057,
  "Î¯": 12279,
  "Î±": 4629,
  "Î²": 17776,
  "Î³": 14671,
  "Î´": 19676,
  "Îµ": 6541,
  "ÎµÎ¹": 19759,
  "Î·": 11473,
  "Î¸": 21495,
  "Î¹": 5974,
  "Î¹Î±": 27613,
  "Îº": 12629,
  "Î»": 10219,
  "Î»Î»": 29246,
  "Î¼": 13503,
  "Î½": 5362,
  "Î½Î±": 22305,
  "Î¿": 5895,
  "Î¿Î½": 20228,
  "Î¿Ïħ": 16713,
  "ÎŃ": 15103,
  "Ï": 144,
  "ÏĢ": 8813,
  "Ïģ": 7837,
  "ÏģÎ±": 27291,
  "ÏĤ": 9368,
  "Ïĥ": 8466,
  "ÏĦ": 4818,
  "ÏĦÎ±": 17769,
  "ÏĦÎµ": 28666,
  "ÏĦÎ¹": 26131,
  "ÏĦÎ¿": 27946,
  "Ïħ": 11716,
  "ÏĨ": 21023,
  "Ïĩ": 17811,
  "Ïī": 16295,
  "ÏĮ": 13035,
  "Ïį": 20042,
  "Ïİ": 26929,
  "Ð": 145,
  "Ð°": 1428,
  "Ð°Ð": 3425,
  "Ð°Ð±": 20090,
  "Ð°Ð²": 14332,
  "Ð°Ð³": 20825,
  "Ð°Ð´": 14145,
  "Ð°Ð¶": 27461,
  "Ð°Ð·": 14057,
  "Ð°Ð¹": 12962,
  "Ð°Ðº": 12271,
  "Ð°Ð»": 7240,
  "Ð°Ð¼": 10755,
  "Ð°Ð½": 5906,
  "Ð°Ð¿": 19661,
  "Ð°ÑĢ": 7843,
  "Ð°Ñģ": 11593,
  "Ð°ÑģÑĤ": 27115,
  "Ð°ÑĤ": 8636,
  "Ð°ÑĤÑĮ": 22397,
  "Ð°Ñħ": 20631,
  "Ð°ÑĪ": 21604,
  "Ð°Ñİ": 29454,
  "Ð°Ñı": 28208,
  "Ð±": 7950,
  "Ð²": 5322,
  "Ð³": 6204,
  "Ð³Ð°": 26065,
  "Ð³Ð°Ð½": 26098,
  "Ð´": 4047,
  "Ð´Ð°": 16991,
  "Ð´Ñĭ": 21675,
  "Ðµ": 1588,
  "Ðµd": 29614,
  "Ðµr": 22554,
  "ÐµÐ±": 27116,
  "ÐµÐ²": 23662,
  "ÐµÐ³": 18999,
  "ÐµÐ´": 14125,
  "ÐµÐ·": 23763,
  "ÐµÐ¹": 14227,
  "ÐµÐº": 19968,
  "ÐµÐ»": 9586,
  "ÐµÐ»ÑĮ": 22858,
  "ÐµÐ¼": 12797,
  "ÐµÐ½": 5748,
  "ÐµÐ½Ð¸": 13821,
  "ÐµÐ½Ð¸Ñı": 24912,
  "ÐµÐ¿": 24697,
  "ÐµÑĢ": 8768,
  "ÐµÑģ": 12575,
  "ÐµÑĤ": 9779,
  "ÐµÑĩ": 28663,
  "Ð¶": 12678,
  "Ð·": 7270,
  "Ð¸": 1919,
  "Ð¸Ð²": 19180,
  "Ð¸Ð´": 28039,
  "Ð¸Ðµ": 27400,
  "Ð¸Ð·": 19737,
  "Ð¸Ð¹": 23171,
  "Ð¸Ðº": 20995,
  "Ð¸Ð»": 11827,
  "Ð¸Ð¼": 14651,
  "Ð¸Ð½": 10292,
  "Ð¸ÑĢ": 16016,
  "Ð¸Ñģ": 21365,
  "Ð¸ÑĤ": 10439,
  "Ð¸ÑĤÑĮ": 28486,
  "Ð¸Ñħ": 24584,
  "Ð¸Ñĩ": 23587,
  "Ð¸ÑĪ": 26567,
  "Ð¸Ñı": 19305,
  "Ð¹": 6968,
  "Ðº": 4487,
  "ÐºÐ¸": 18518,
  "Ð»": 2304,
  "Ð»Ð°ÑĢ": 29764,
  "Ð»Ð¸": 15599,
  "Ð»Ñı": 20845,
  "Ð¼": 4769,
  "Ð½": 1922,
  "Ð½Ð°": 21301,
  "Ð½Ð¸": 15672,
  "Ð½Ð¾": 12079,
  "Ð½Ð¾Ð³Ð¾": 28688,
  "Ð½Ð¾Ð¹": 25517,
  "Ð½Ð¾ÑģÑĤ": 26333,
  "Ð½Ñĭ": 11063,
  "Ð½ÑĭÑħ": 24841,
  "Ð¾": 1574,
  "Ð¾Ð": 2903,
  "Ð¾Ð±": 16242,
  "Ð¾Ð²": 7864,
  "Ð¾Ð³": 10910,
  "Ð¾Ð³Ð¾": 15991,
  "Ð¾Ð´": 10343,
  "Ð¾Ð¶": 20680,
  "Ð¾Ð·": 21655,
  "Ð¾Ð¹": 12306,
  "Ð¾Ðº": 19638,
  "Ð¾Ð»": 8508,
  "Ð¾Ð»ÑĮ": 21964,
  "Ð¾Ð¼": 10537,
  "Ð¾Ð½": 13437,
  "Ð¾Ð¿": 25554,
  "Ð¾ÑĢ": 10486,
  "Ð¾Ñģ": 15073,
  "Ð¾ÑģÑĤ": 19616,
  "Ð¾ÑĤ": 13043,
  "Ð¾Ñĩ": 27691,
  "Ð¿": 6567,
  "Ñ": 146,
  "ÑĢ": 2215,
  "ÑĢÑĥ": 21612,
  "Ñģ": 2200,
  "ÑģÐº": 26580,
  "ÑģÑĤ": 6289,
  "ÑģÑĤÐ²": 15248,
  "ÑģÑı": 14244,
  "ÑĤ": 1953,
  "ÑĤÐ¾": 13827,
  "Ñĥ": 3139,
  "ÑĥÐ´": 24146,
  "ÑĥÐ»": 21306,
  "ÑĥÐ½": 25141,
  "ÑĥÑĢ": 23567,
  "ÑĥÑĤ": 24220,
  "ÑĥÑİ": 28100,
  "ÑĦ": 22439,
  "Ñħ": 7228,
  "ÑĨ": 13058,
  "ÑĨÐ¸": 25023,
  "Ñĩ": 7133,
  "ÑĪ": 6823,
  "Ñī": 13801,
  "Ñĭ": 3109,
  "ÑĭÐ»": 17027,
  "ÑĭÐ¼": 27563,
  "ÑĭÐ½": 13566,
  "ÑĭÐ¿": 18344,
  "ÑĭÑĢ": 20477,
  "ÑĮ": 5453,
  "Ñİ": 9842,
  "Ñı": 4484,
  "ÑıÑĤ": 25229,
  "Ñĳ": 18376,
  "Ñķ": 11404,
  "Ñĸ": 4375,
  "ÑĸÐ½": 18466,
  "ÑĸÑĢ": 27982,
  "Ò": 147,
  "Ò£": 14825,
  "Ò¯": 10502,
  "Ò¯Ð½": 29132,
  "Ò±": 21475,
  "Ò³": 26468,
  "Òĵ": 14633,
  "ÒĽ": 9038,
  "Ó": 148,
  "Ó©": 11613,
  "ÓĻ": 28615,
  "Ô": 149,
  "Õ": 150,
  "Ö": 151,
  "×": 152,
  "×¨": 28910,
  "×Ķ": 23557,
  "×ķ": 12872,
  "×ķ×": 14984,
  "×Ļ": 13369,
  "×Ļ×": 16945,
  "×ľ": 23667,
  "Ø": 153,
  "Ø¡": 23401,
  "Ø¢": 26663,
  "Ø£": 12438,
  "Ø¥": 20648,
  "Ø¦": 28639,
  "Ø§": 2375,
  "Ø§Ø¨": 25897,
  "Ø§Øª": 29965,
  "Ø§Ø¯": 29244,
  "Ø§Ø±": 19071,
  "Ø§ÙĦ": 16096,
  "Ø§Ùħ": 28314,
  "Ø§ÙĨ": 14262,
  "Ø¨": 7161,
  "Ø©": 17900,
  "Øª": 5923,
  "Ø«": 26827,
  "Ø¬": 13902,
  "Ø®": 16719,
  "Ø¯": 6081,
  "Ø°": 13216,
  "Ø±": 4641,
  "Ø²": 13706,
  "Ø³": 7987,
  "Ø³Øª": 24251,
  "Ø´": 13120,
  "Øµ": 17951,
  "Ø¶": 20233,
  "Ø·": 20499,
  "Ø¹": 8536,
  "Øº": 29203,
  "ØĮ": 19039,
  "ØŃ": 11162,
  "Ù": 154,
  "Ù°": 9450,
  "ÙĢ": 5548,
  "ÙĢÙĢ": 8909,
  "Ùģ": 10255,
  "ÙĤ": 9335,
  "Ùĥ": 7930,
  "ÙĦ": 3017,
  "ÙĦØ§": 12992,
  "Ùħ": 4084,
  "ÙħØ§": 21316,
  "ÙĨ": 3515,
  "Ùĩ": 4609,
  "ÙĩØ§": 24129,
  "ÙĪ": 4362,
  "ÙĪØ§": 15081,
  "ÙĪØ¯": 26895,
  "ÙĪØ±": 28933,
  "ÙĪÙĦ": 29116,
  "ÙĪÙĨ": 15276,
  "Ùī": 13880,
  "ÙĬ": 4988,
  "ÙĬÙħ": 26728,
  "ÙĬÙĨ": 16185,
  "Ùĭ": 19701,
  "ÙĮ": 26438,
  "Ùį": 25069,
  "Ùİ": 1792,
  "ÙİÙ°": 19882,
  "ÙİÙĳ": 6831,
  "Ùı": 3954,
  "ÙıÙĳ": 26909,
  "ÙĲ": 3364,
  "ÙĲÙĳ": 17378,
  "Ùĳ": 5203,
  "ÙĴ": 10228,
  "Ú": 155,
  "Ú©": 19946,
  "Ú¯": 22478,
  "Û": 156,
  "Û¡": 6368,
  "ÛĮ": 6420,
  "ÛĮÙĨ": 26224,
  "Ü": 157,
  "Ý": 158,
  "Þ": 159,
  "ß": 160,
  "à": 161,
  "à¤": 2693,
  "à¤¤": 16021,
  "à¤¦": 27723,
  "à¤¨": 17655,
  "à¤®": 21394,
  "à¤¯": 22274,
  "à¤°": 14341,
  "à¤µ": 22184,
  "à¤¸": 26834,
  "à¤¾": 11942,
  "à¤¿": 16891,
  "à¤Ĥ": 24450,
  "à¤ķ": 24994,
  "à¥": 5234,
  "à¥¤": 19559,
  "à¥Ģ": 26291,
  "à¥ģ": 26577,
  "à¥ĩ": 18041,
  "à¥ĭ": 26141,
  "à¥į": 10341,
  "à¦": 3372,
  "à¦¤": 28437,
  "à¦¨": 23725,
  "à¦¯": 27981,
  "à¦°": 16554,
  "à¦²": 27663,
  "à¦¼": 28835,
  "à¦¾": 12634,
  "à¦¿": 19451,
  "à¦ķ": 27622,
  "à§": 8642,
  "à§ĩ": 12978,
  "à§į": 22048,
  "à®": 1001,
  "à®£": 12398,
  "à®¤": 5197,
  "à®¤à®²": 26853,
  "à®¨": 15313,
  "à®©": 5851,
  "à®ª": 7573,
  "à®®": 6750,
  "à®¯": 7581,
  "à®°": 5345,
  "à®±": 6689,
  "à®²": 7122,
  "à®³": 12606,
  "à®´": 16897,
  "à®µ": 7804,
  "à®µà®°": 19519,
  "à®¾": 5482,
  "à®¿": 5616,
  "à®ķ": 5528,
  "à®ļ": 15559,
  "à®Ł": 8397,
  "à¯": 1583,
  "à¯ģ": 4100,
  "à¯ģ.": 28481,
  "à¯Ĥ": 27495,
  "à¯Ĩ": 15224,
  "à¯ĩ": 13610,
  "à¯Ī": 6529,
  "à¯Ī:": 21715,
  "à¯Ĭ": 17545,
  "à¯ĭ": 21605,
  "à¯į": 2427,
  "à¯į,": 26231,
  "à¯į.": 24499,
  "á": 162,
  "á¸": 19593,
  "á¸¥": 29487,
  "á¹": 7850,
  "á¹£": 19336,
  "á¹ĩ": 16992,
  "á¹ĩa": 24421,
  "á¹Ľ": 23658,
  "á¹Ľá¹£": 29500,
  "áº": 3832,
  "áº¡": 13742,
  "áº¡i": 24051,
  "áº£": 14672,
  "áº¥": 14169,
  "áº¥t": 26519,
  "áº¥y": 25013,
  "áº§": 19032,
  "áº¯": 19081,
  "áº·": 26872,
  "áº¿": 11621,
  "áº¿n": 27619,
  "áº¿t": 24582,
  "áºŃ": 19097,
  "á»": 2626,
  "á»¯": 17244,
  "á»¯ng": 25835,
  "á»ģ": 23909,
  "á»ĩ": 18639,
  "á»į": 23005,
  "á»ĳ": 15505,
  "á»ĵ": 24307,
  "á»Ļ": 13000,
  "á»Ļt": 17686,
  "á»Ł": 26364,
  "á¼": 9546,
  "á½": 7559,
  "á½°": 25721,
  "á½²": 29922,
  "á½¶": 22017,
  "á½¸": 23822,
  "á½Ĳ": 29940,
  "á¿": 15004,
  "â": 163,
  "âĢ": 579,
  "âĢ¢": 4881,
  "âĢĮ": 16982,
  "âĢĵ": 929,
  "âĢĵ\"": 15574,
  "âĢĶ": 755,
  "âĢĶ\"": 3069,
  "âĢĶ'": 29891,
  "âĢĶâĢĶ": 23733,
  "âĢķ": 22709,
  "ã": 164,
  "ãĢ": 23489,
  "ãģ": 1912,
  "ãģ¤": 29248,
  "ãģ¨": 22813,
  "ãģĦ": 14821,
  "ãģĨ": 14879,
  "ãģĨãģ": 25605,
  "ãģĭ": 28064,
  "ãģį": 26901,
  "ãģĵ": 29718,
  "ãģĹ": 18312,
  "ãĤ": 2290,
  "ãĤ¤": 13699,
  "ãĤ¦": 8149,
  "ãĤ¯": 16868,
  "ãĤī": 21059,
  "ãĤĬ": 20284,
  "ãĤĵ": 16102,
  "ãĤĵãģ": 24483,
  "ãĥ": 3322,
  "ãĥ¥": 19456,
  "ãĥ¥ãĤ¦": 29782,
  "ãĥ§": 12761,
  "ãĥ§ãĤ¦": 16142,
  "ãĥ³": 9184,
  "ãĥģ": 27245,
  "ãĥĦ": 18991,
  "ä": 165,
  "ä¸": 15348,
  "å": 166,
  "æ": 167,
  "ç": 168,
  "è": 169,
  "é": 170,
  "ê": 171,
  "ë": 172,
  "ì": 173,
  "í": 174,
  "î": 175,
  "ï": 176,
  "ïĤ": 26212,
  "ð": 177,
  "ñ": 178,
  "ò": 179,
  "ó": 180,
  "ô": 181,
  "õ": 182,
  "ö": 183,
  "÷": 184,
  "ø": 185,
  "ù": 186,
  "ú": 187,
  "û": 188,
  "ü": 189,
  "ý": 190,
  "þ": 191,
  "ÿ": 192,
  "Ā": 193,
  "ā": 194,
  "Ă": 195,
  "ă": 196,
  "Ą": 197,
  "ą": 198,
  "Ć": 199,
  "ć": 200,
  "Ĉ": 201,
  "ĉ": 202,
  "Ċ": 203,
  "ċ": 204,
  "Č": 205,
  "č": 206,
  "Ď": 207,
  "ď": 208,
  "Đ": 209,
  "đ": 210,
  "Ē": 211,
  "ē": 212,
  "Ĕ": 213,
  "ĕ": 214,
  "Ė": 215,
  "ė": 216,
  "Ę": 217,
  "ę": 218,
  "Ě": 219,
  "ě": 220,
  "Ĝ": 221,
  "ĝ": 222,
  "Ğ": 223,
  "ğ": 224,
  "Ġ": 225,
  "Ġ!": 20564,
  "Ġ\"": 354,
  "Ġ\"'": 18022,
  "Ġ\"...": 8441,
  "Ġ#": 4179,
  "Ġ$": 4220,
  "Ġ%": 17369,
  "Ġ&": 3436,
  "Ġ'": 708,
  "Ġ''": 14866,
  "Ġ(": 621,
  "Ġ(\"": 13833,
  "Ġ('": 25657,
  "Ġ((": 12767,
  "Ġ)": 9278,
  "Ġ),": 26907,
  "Ġ).": 18451,
  "Ġ*": 1155,
  "Ġ**": 1670,
  "Ġ**\"": 17245,
  "Ġ**(": 19699,
  "Ġ***": 25553,
  "Ġ****": 7541,
  "Ġ+": 6405,
  "Ġ++": 22738,
  "Ġ+-": 16369,
  "Ġ,": 2084,
  "Ġ,\"": 11895,
  "Ġ-": 959,
  "Ġ-\"": 21401,
  "Ġ-+": 22162,
  "Ġ--": 4415,
  "Ġ---": 23624,
  "Ġ.": 1337,
  "Ġ.\"": 8164,
  "Ġ...": 1633,
  "Ġ...\"": 10988,
  "Ġ...'": 23877,
  "Ġ....": 21950,
  "Ġ/": 7667,
  "Ġ0": 3130,
  "Ġ01": 19329,
  "Ġ1": 656,
  "Ġ10": 2620,
  "Ġ100": 6501,
  "Ġ1000": 21862,
  "Ġ101": 21693,
  "Ġ11": 4096,
  "Ġ110": 26110,
  "Ġ119": 29074,
  "Ġ12": 3138,
  "Ġ120": 23271,
  "Ġ13": 4085,
  "Ġ130": 29554,
  "Ġ14": 4019,
  "Ġ15": 3571,
  "Ġ150": 18962,
  "Ġ16": 4204,
  "Ġ17": 4304,
  "Ġ18": 3104,
  "Ġ180": 28778,
  "Ġ19": 1442,
  "Ġ1920": 27993,
  "Ġ1930": 25034,
  "Ġ1940": 26807,
  "Ġ1945": 29333,
  "Ġ1950": 19262,
  "Ġ196": 6151,
  "Ġ1960": 17204,
  "Ġ1964": 28079,
  "Ġ1966": 29637,
  "Ġ1967": 27084,
  "Ġ1968": 25011,
  "Ġ1969": 25399,
  "Ġ197": 5421,
  "Ġ1970": 15234,
  "Ġ1971": 27042,
  "Ġ1972": 26252,
  "Ġ1973": 26113,
  "Ġ1974": 26873,
  "Ġ1975": 24746,
  "Ġ1976": 25197,
  "Ġ1977": 25284,
  "Ġ1978": 24242,
  "Ġ1979": 24487,
  "Ġ198": 5099,
  "Ġ1980": 14732,
  "Ġ1981": 24960,
  "Ġ1982": 24908,
  "Ġ1983": 25590,
  "Ġ1984": 23197,
  "Ġ1985": 23880,
  "Ġ1986": 24699,
  "Ġ1987": 24099,
  "Ġ1988": 21702,
  "Ġ1989": 22275,
  "Ġ199": 4234,
  "Ġ1990": 14669,
  "Ġ1991": 20926,
  "Ġ1992": 20805,
  "Ġ1993": 20083,
  "Ġ1994": 19944,
  "Ġ1995": 18886,
  "Ġ1996": 18910,
  "Ġ1997": 19705,
  "Ġ1998": 18194,
  "Ġ1999": 17461,
  "Ġ2": 799,
  "Ġ20": 3350,
  "Ġ200": 2785,
  "Ġ2000": 12154,
  "Ġ2001": 15214,
  "Ġ2002": 16596,
  "Ġ2003": 15010,
  "Ġ2004": 14977,
  "Ġ2005": 14314,
  "Ġ2006": 13082,
  "Ġ2007": 12775,
  "Ġ2008": 11780,
  "Ġ2009": 11232,
  "Ġ201": 2121,
  "Ġ2010": 9501,
  "Ġ2011": 8922,
  "Ġ2012": 7427,
  "Ġ2013": 7238,
  "Ġ2014": 8613,
  "Ġ2015": 9658,
  "Ġ2016": 10808,
  "Ġ2017": 12314,
  "Ġ2018": 13965,
  "Ġ2019": 17715,
  "Ġ2020": 22635,
  "Ġ21": 5755,
  "Ġ22": 6476,
  "Ġ23": 6201,
  "Ġ24": 5216,
  "Ġ25": 5526,
  "Ġ250": 19857,
  "Ġ26": 7092,
  "Ġ27": 7117,
  "Ġ28": 7050,
  "Ġ29": 8190,
  "Ġ3": 1315,
  "Ġ30": 5060,
  "Ġ300": 15887,
  "Ġ31": 9840,
  "Ġ32": 11315,
  "Ġ33": 11684,
  "Ġ34": 12596,
  "Ġ35": 10663,
  "Ġ36": 11161,
  "Ġ37": 11962,
  "Ġ38": 12288,
  "Ġ39": 14250,
  "Ġ4": 1606,
  "Ġ40": 7169,
  "Ġ400": 20832,
  "Ġ41": 16703,
  "Ġ42": 14375,
  "Ġ43": 17203,
  "Ġ44": 16582,
  "Ġ45": 11742,
  "Ġ46": 17303,
  "Ġ47": 16253,
  "Ġ48": 13295,
  "Ġ49": 16399,
  "Ġ5": 1728,
  "Ġ50": 6500,
  "Ġ500": 14413,
  "Ġ51": 16831,
  "Ġ52": 18834,
  "Ġ53": 18851,
  "Ġ54": 19308,
  "Ġ55": 17081,
  "Ġ56": 19899,
  "Ġ57": 20052,
  "Ġ58": 20307,
  "Ġ59": 21741,
  "Ġ6": 2045,
  "Ġ60": 9826,
  "Ġ600": 29045,
  "Ġ61": 23600,
  "Ġ62": 23329,
  "Ġ63": 23596,
  "Ġ64": 21636,
  "Ġ65": 18483,
  "Ġ66": 20959,
  "Ġ67": 24368,
  "Ġ68": 23451,
  "Ġ69": 23631,
  "Ġ7": 2248,
  "Ġ70": 11476,
  "Ġ71": 29302,
  "Ġ72": 22035,
  "Ġ73": 26400,
  "Ġ74": 25786,
  "Ġ75": 17665,
  "Ġ76": 27181,
  "Ġ77": 26323,
  "Ġ78": 24625,
  "Ġ79": 29046,
  "Ġ8": 2345,
  "Ġ80": 11446,
  "Ġ800": 29261,
  "Ġ82": 28251,
  "Ġ84": 29455,
  "Ġ85": 23128,
  "Ġ86": 28583,
  "Ġ87": 28211,
  "Ġ88": 25935,
  "Ġ89": 27608,
  "Ġ9": 2257,
  "Ġ90": 11555,
  "Ġ911": 23481,
  "Ġ95": 16041,
  "Ġ96": 26821,
  "Ġ97": 27821,
  "Ġ978": 13062,
  "Ġ98": 24995,
  "Ġ99": 19467,
  "Ġ:": 1534,
  "Ġ;": 11749,
  "Ġ<": 7692,
  "Ġ=": 2806,
  "Ġ>": 13536,
  "Ġ?": 9080,
  "Ġ@": 15879,
  "ĠA": 361,
  "ĠAA": 28069,
  "ĠAB": 14349,
  "ĠAC": 20115,
  "ĠACC": 26600,
  "ĠACT": 26380,
  "ĠAD": 10521,
  "ĠAF": 18770,
  "ĠAG": 18277,
  "ĠAGAIN": 29118,
  "ĠAI": 14165,
  "ĠAIDS": 22874,
  "ĠAJ": 26369,
  "ĠAK": 19116,
  "ĠAL": 7949,
  "ĠALL": 12608,
  "ĠAM": 5999,
  "ĠAMA": 19547,
  "ĠAN": 8175,
  "ĠANA": 18278,
  "ĠANAD": 18854,
  "ĠAND": 5704,
  "ĠANY": 27770,
  "ĠAP": 18564,
  "ĠAR": 8692,
  "ĠARE": 15617,
  "ĠARRAY": 20282,
  "ĠAS": 13802,
  "ĠASS": 29449,
  "ĠAT": 9925,
  "ĠAW": 24145,
  "ĠAaron": 6956,
  "ĠAb": 2274,
  "ĠAbbi": 22037,
  "ĠAbby": 10137,
  "ĠAbd": 15629,
  "ĠAbdul": 28423,
  "ĠAbe": 18649,
  "ĠAbel": 17477,
  "ĠAber": 28138,
  "ĠAbigail": 18065,
  "ĠAbout": 8079,
  "ĠAbove": 17559,
  "ĠAbr": 19910,
  "ĠAbraham": 7751,
  "ĠAbram": 24162,
  "ĠAbs": 18439,
  "ĠAbsolutely": 28160,
  "ĠAbu": 15009,
  "ĠAc": 6033,
  "ĠAcadem": 11641,
  "ĠAcademy": 12585,
  "ĠAcc": 13519,
  "ĠAccept": 26241,
  "ĠAccess": 25515,
  "ĠAccording": 8370,
  "ĠAccount": 28523,
  "ĠAce": 18710,
  "ĠAch": 19092,
  "ĠAchilles": 23643,
  "ĠAcross": 23131,
  "ĠAct": 4946,
  "ĠAction": 21809,
  "ĠActs": 14601,
  "ĠActually": 11051,
  "ĠAd": 1797,
  "ĠAdam": 3834,
  "ĠAdams": 15724,
  "ĠAdd": 9202,
  "ĠAddison": 25581,
  "ĠAdditionally": 23859,
  "ĠAdela": 23506,
  "ĠAdelaide": 28055,
  "ĠAdem": 15869,
  "ĠAden": 25457,
  "ĠAdminist": 17286,
  "ĠAdministration": 23869,
  "ĠAdmiral": 12311,
  "ĠAdrian": 10450,
  "ĠAdv": 20734,
  "ĠAdvent": 17451,
  "ĠAdventure": 24076,
  "ĠAer": 22730,
  "ĠAf": 4180,
  "ĠAff": 15522,
  "ĠAffairs": 24727,
  "ĠAfghan": 13989,
  "ĠAfghanistan": 16723,
  "ĠAfric": 5140,
  "ĠAfrica": 7569,
  "ĠAfrican": 9410,
  "ĠAfter": 1746,
  "ĠAfterwards": 25954,
  "ĠAg": 3273,
  "ĠAgain": 6140,
  "ĠAgainst": 22073,
  "ĠAgatha": 23999,
  "ĠAge": 11482,
  "ĠAgency": 16924,
  "ĠAgent": 10444,
  "ĠAges": 27188,
  "ĠAgg": 27835,
  "ĠAgnes": 21781,
  "ĠAgric": 22195,
  "ĠAh": 7413,
  "ĠAhmad": 28139,
  "ĠAhmed": 29505,
  "ĠAid": 6962,
  "ĠAidan": 17969,
  "ĠAiden": 8927,
  "ĠAim": 21376,
  "ĠAimee": 26456,
  "ĠAin": 27320,
  "ĠAir": 7252,
  "ĠAirport": 22583,
  "ĠAis": 22723,
  "ĠAisha": 25909,
  "ĠAj": 18771,
  "ĠAjax": 28229,
  "ĠAk": 8556,
  "ĠAl": 1137,
  "ĠAlabama": 16455,
  "ĠAlan": 8047,
  "ĠAlana": 26419,
  "ĠAlaska": 22286,
  "ĠAlb": 20779,
  "ĠAlbert": 10734,
  "ĠAld": 11704,
  "ĠAle": 13933,
  "ĠAlec": 12831,
  "ĠAless": 21027,
  "ĠAlex": 2676,
  "ĠAlexa": 22045,
  "ĠAlexand": 20198,
  "ĠAlexander": 9859,
  "ĠAlexandra": 17262,
  "ĠAlexandria": 27274,
  "ĠAlexis": 18857,
  "ĠAlf": 9814,
  "ĠAlfie": 21885,
  "ĠAlfred": 15772,
  "ĠAli": 11266,
  "ĠAlice": 6462,
  "ĠAlicia": 13738,
  "ĠAlison": 17091,
  "ĠAlistair": 14626,
  "ĠAll": 1170,
  "ĠAllaah": 19803,
  "ĠAllah": 2788,
  "ĠAllan": 25200,
  "ĠAllen": 12703,
  "ĠAlliance": 16235,
  "ĠAllie": 19446,
  "ĠAllison": 13960,
  "ĠAlly": 20142,
  "ĠAllÃ¢hu": 16007,
  "ĠAlma": 25921,
  "ĠAlmighty": 10182,
  "ĠAlmost": 11005,
  "ĠAlone": 23838,
  "ĠAlong": 16526,
  "ĠAlpha": 12864,
  "ĠAlready": 18465,
  "ĠAlso": 6397,
  "ĠAlt": 17096,
  "ĠAltern": 27429,
  "ĠAlthough": 4357,
  "ĠAlvin": 23055,
  "ĠAlways": 11859,
  "ĠAly": 14232,
  "ĠAlyssa": 22019,
  "ĠAm": 2156,
  "ĠAman": 26535,
  "ĠAmanda": 7617,
  "ĠAmar": 27374,
  "ĠAmaz": 12278,
  "ĠAmazon": 14186,
  "ĠAmb": 10777,
  "ĠAmbassador": 20575,
  "ĠAmber": 9858,
  "ĠAmelia": 11945,
  "ĠAmen": 20047,
  "ĠAmend": 27963,
  "ĠAmeric": 2193,
  "ĠAmerica": 4350,
  "ĠAmerican": 3525,
  "ĠAmericans": 7974,
  "ĠAmira": 29313,
  "ĠAmong": 14338,
  "ĠAmos": 24459,
  "ĠAmy": 6203,
  "ĠAn": 1340,
  "ĠAna": 12439,
  "ĠAnalysis": 23786,
  "ĠAnast": 27942,
  "ĠAncient": 17968,
  "ĠAnd": 744,
  "ĠAnderson": 11410,
  "ĠAndre": 8845,
  "ĠAndrea": 14112,
  "ĠAndrew": 5809,
  "ĠAndrews": 21502,
  "ĠAndy": 9554,
  "ĠAng": 2775,
  "ĠAnge": 24037,
  "ĠAngel": 3809,
  "ĠAngela": 9751,
  "ĠAngeles": 11862,
  "ĠAngelica": 23317,
  "ĠAngelo": 25368,
  "ĠAngels": 14811,
  "ĠAnger": 23256,
  "ĠAngie": 12395,
  "ĠAngus": 21686,
  "ĠAnimal": 26744,
  "ĠAnimals": 25727,
  "ĠAnita": 24091,
  "ĠAnn": 5782,
  "ĠAnna": 5606,
  "ĠAnnabelle": 27376,
  "ĠAnne": 7929,
  "ĠAnnette": 15632,
  "ĠAnnie": 8343,
  "ĠAnother": 5333,
  "ĠAnswer": 29027,
  "ĠAnt": 3932,
  "ĠAnthony": 10491,
  "ĠAnti": 23777,
  "ĠAnton": 9145,
  "ĠAntonio": 14666,
  "ĠAny": 3129,
  "ĠAnya": 22868,
  "ĠAnyone": 12908,
  "ĠAnything": 11170,
  "ĠAnyway": 7963,
  "ĠAp": 5838,
  "ĠApart": 18461,
  "ĠAphrodite": 29582,
  "ĠApollo": 16760,
  "ĠApost": 13466,
  "ĠApostle": 18053,
  "ĠApp": 4436,
  "ĠApparently": 8678,
  "ĠApple": 17619,
  "ĠAppro": 24432,
  "ĠApril": 7243,
  "ĠAqu": 22070,
  "ĠAr": 1550,
  "ĠAra": 13342,
  "ĠArab": 7154,
  "ĠArabia": 18908,
  "ĠArabic": 17683,
  "ĠArabs": 20431,
  "ĠAram": 28392,
  "ĠArc": 18988,
  "ĠArch": 10786,
  "ĠArcher": 21600,
  "ĠArchie": 19469,
  "ĠArd": 29834,
  "ĠAre": 3383,
  "ĠArea": 22610,
  "ĠAren": 16543,
  "ĠAres": 20762,
  "ĠArg": 29063,
  "ĠArgent": 25800,
  "ĠAri": 8562,
  "ĠAria": 26259,
  "ĠArianna": 23426,
  "ĠAriel": 20038,
  "ĠArist": 18650,
  "ĠAristotle": 28448,
  "ĠArizona": 17314,
  "ĠArk": 14475,
  "ĠArm": 9475,
  "ĠArms": 26504,
  "ĠArmstrong": 24525,
  "ĠArmy": 7181,
  "ĠArn": 15552,
  "ĠArnold": 20305,
  "ĠAround": 16556,
  "ĠArrow": 28878,
  "ĠArt": 5446,
  "ĠArtem": 19062,
  "ĠArtemis": 23369,
  "ĠArthur": 8050,
  "ĠArticle": 27295,
  "ĠArts": 25772,
  "ĠArus": 29272,
  "ĠAry": 26053,
  "ĠAs": 1017,
  "ĠAsh": 5308,
  "ĠAshe": 25593,
  "ĠAsher": 20361,
  "ĠAshley": 12539,
  "ĠAshton": 21193,
  "ĠAsia": 10818,
  "ĠAsian": 13757,
  "ĠAside": 26829,
  "ĠAsk": 14878,
  "ĠAsked": 22955,
  "ĠAspen": 28858,
  "ĠAss": 5545,
  "ĠAssembly": 23899,
  "ĠAssistant": 28533,
  "ĠAssoci": 11056,
  "ĠAssociation": 15698,
  "ĠAst": 9676,
  "ĠAstrid": 24692,
  "ĠAt": 1480,
  "ĠAth": 26526,
  "ĠAthen": 16054,
  "ĠAthena": 19466,
  "ĠAthens": 22182,
  "ĠAtl": 8548,
  "ĠAtlanta": 17861,
  "ĠAtlantic": 17196,
  "ĠAtlantis": 29569,
  "ĠAtt": 8271,
  "ĠAttorney": 25134,
  "ĠAub": 20639,
  "ĠAubrey": 25923,
  "ĠAud": 11450,
  "ĠAudrey": 20538,
  "ĠAug": 25768,
  "ĠAugust": 6822,
  "ĠAunt": 6170,
  "ĠAuntie": 24836,
  "ĠAur": 15654,
  "ĠAurel": 27984,
  "ĠAurora": 20285,
  "ĠAust": 4512,
  "ĠAustin": 8723,
  "ĠAustral": 6803,
  "ĠAustralia": 9348,
  "ĠAustralian": 15097,
  "ĠAut": 11160,
  "ĠAuthor": 9309,
  "ĠAuthority": 24429,
  "ĠAutumn": 21791,
  "ĠAv": 9008,
  "ĠAva": 10675,
  "ĠAvenue": 14027,
  "ĠAvery": 13153,
  "ĠAw": 15608,
  "ĠAward": 27357,
  "ĠAway": 28272,
  "ĠAx": 13092,
  "ĠAxel": 29598,
  "ĠAy": 10846,
  "ĠAz": 8185,
  "ĠB": 400,
  "ĠBACK": 25927,
  "ĠBBC": 26446,
  "ĠBC": 12832,
  "ĠBE": 8677,
  "ĠBET": 29867,
  "ĠBIO": 14046,
  "ĠBL": 13938,
  "ĠBM": 18146,
  "ĠBMW": 25221,
  "ĠBOTH": 28672,
  "ĠBR": 13075,
  "ĠBUT": 22352,
  "ĠBY": 16071,
  "ĠBa": 7493,
  "ĠBab": 6087,
  "ĠBaba": 19410,
  "ĠBaby": 14753,
  "ĠBabylon": 13883,
  "ĠBack": 8333,
  "ĠBad": 10929,
  "ĠBaden": 28108,
  "ĠBag": 29258,
  "ĠBailey": 16885,
  "ĠBak": 19162,
  "ĠBaker": 18911,
  "ĠBal": 10452,
  "ĠBalance": 23493,
  "ĠBald": 18244,
  "ĠBall": 13941,
  "ĠBalt": 13386,
  "ĠBaltimore": 23572,
  "ĠBaltor": 28372,
  "ĠBan": 10802,
  "ĠBand": 16378,
  "ĠBane": 29285,
  "ĠBang": 13856,
  "ĠBank": 12026,
  "ĠBanks": 25846,
  "ĠBapt": 14233,
  "ĠBaptist": 17015,
  "ĠBar": 3112,
  "ĠBarb": 10157,
  "ĠBarbara": 13375,
  "ĠBarbie": 28174,
  "ĠBarker": 29464,
  "ĠBarn": 17546,
  "ĠBarnes": 18048,
  "ĠBarney": 27839,
  "ĠBaron": 17195,
  "ĠBarr": 19579,
  "ĠBarrett": 29143,
  "ĠBarry": 9460,
  "ĠBart": 10167,
  "ĠBas": 9539,
  "ĠBase": 16025,
  "ĠBased": 21485,
  "ĠBasically": 28667,
  "ĠBasil": 28006,
  "ĠBass": 25999,
  "ĠBast": 21903,
  "ĠBat": 18658,
  "ĠBates": 25741,
  "ĠBath": 24126,
  "ĠBatt": 21081,
  "ĠBattalion": 29407,
  "ĠBattle": 14805,
  "ĠBax": 19681,
  "ĠBaxter": 22253,
  "ĠBay": 7567,
  "ĠBe": 1479,
  "ĠBea": 17255,
  "ĠBeach": 12430,
  "ĠBear": 13078,
  "ĠBeast": 14905,
  "ĠBeat": 11846,
  "ĠBeatrice": 19491,
  "ĠBeats": 18840,
  "ĠBeau": 19361,
  "ĠBeaut": 14269,
  "ĠBeautiful": 23245,
  "ĠBeauty": 21855,
  "ĠBec": 22043,
  "ĠBecause": 4016,
  "ĠBecca": 13915,
  "ĠBeck": 8224,
  "ĠBecky": 12706,
  "ĠBed": 14765,
  "ĠBee": 20312,
  "ĠBeen": 29879,
  "ĠBeet": 25947,
  "ĠBefore": 4166,
  "ĠBegin": 21608,
  "ĠBeginning": 27231,
  "ĠBehind": 10923,
  "ĠBehold": 20900,
  "ĠBeijing": 25309,
  "ĠBeing": 6579,
  "ĠBel": 4905,
  "ĠBelg": 27538,
  "ĠBelie": 21477,
  "ĠBelieve": 16896,
  "ĠBelinda": 20441,
  "ĠBell": 9452,
  "ĠBella": 14253,
  "ĠBelle": 18646,
  "ĠBeloved": 26852,
  "ĠBelow": 22120,
  "ĠBelt": 27936,
  "ĠBen": 3113,
  "ĠBene": 16748,
  "ĠBeneath": 27255,
  "ĠBenedict": 23770,
  "ĠBenjamin": 12334,
  "ĠBenn": 13222,
  "ĠBennett": 20278,
  "ĠBenny": 15452,
  "ĠBenson": 24979,
  "ĠBent": 24193,
  "ĠBer": 8065,
  "ĠBere": 26923,
  "ĠBerlin": 19127,
  "ĠBern": 8128,
  "ĠBernard": 15962,
  "ĠBernice": 28561,
  "ĠBernie": 20456,
  "ĠBerry": 29676,
  "ĠBert": 11045,
  "ĠBeside": 25001,
  "ĠBesides": 5373,
  "ĠBess": 22060,
  "ĠBest": 11019,
  "ĠBet": 4692,
  "ĠBeth": 6633,
  "ĠBethany": 16774,
  "ĠBetsy": 29588,
  "ĠBetter": 12843,
  "ĠBetty": 12641,
  "ĠBetween": 13583,
  "ĠBev": 29056,
  "ĠBever": 24751,
  "ĠBeverly": 27422,
  "ĠBeyond": 14246,
  "ĠBi": 12457,
  "ĠBianca": 23970,
  "ĠBible": 3845,
  "ĠBiblical": 21179,
  "ĠBig": 5824,
  "ĠBil": 22607,
  "ĠBill": 4599,
  "ĠBillie": 19626,
  "ĠBilly": 5982,
  "ĠBin": 26849,
  "ĠBio": 22118,
  "ĠBir": 22421,
  "ĠBird": 15639,
  "ĠBirmingham": 23524,
  "ĠBirth": 21343,
  "ĠBishop": 13317,
  "ĠBl": 1885,
  "ĠBlack": 4473,
  "ĠBlade": 21909,
  "ĠBlaine": 27785,
  "ĠBlair": 28502,
  "ĠBlake": 8620,
  "ĠBlaze": 19470,
  "ĠBle": 28984,
  "ĠBless": 12616,
  "ĠBlessed": 17315,
  "ĠBlind": 28817,
  "ĠBliss": 24615,
  "ĠBlock": 28327,
  "ĠBlood": 7318,
  "ĠBloom": 27969,
  "ĠBlue": 7926,
  "ĠBo": 5434,
  "ĠBoard": 14173,
  "ĠBob": 4212,
  "ĠBobby": 8403,
  "ĠBod": 17854,
  "ĠBody": 13147,
  "ĠBog": 19640,
  "ĠBol": 15812,
  "ĠBolantine": 28796,
  "ĠBomb": 26521,
  "ĠBon": 9880,
  "ĠBond": 19037,
  "ĠBonnie": 18635,
  "ĠBoo": 22250,
  "ĠBook": 5445,
  "ĠBooks": 11534,
  "ĠBoom": 29286,
  "ĠBoone": 28263,
  "ĠBor": 12125,
  "ĠBoris": 22410,
  "ĠBorn": 24001,
  "ĠBos": 20331,
  "ĠBoss": 14773,
  "ĠBoston": 10416,
  "ĠBot": 25459,
  "ĠBoth": 5102,
  "ĠBott": 26128,
  "ĠBou": 21680,
  "ĠBow": 12114,
  "ĠBowl": 22429,
  "ĠBox": 15785,
  "ĠBoy": 7993,
  "ĠBoys": 23790,
  "ĠBr": 1637,
  "ĠBra": 6280,
  "ĠBrad": 5939,
  "ĠBradley": 16850,
  "ĠBrady": 19497,
  "ĠBrah": 25523,
  "ĠBrain": 21441,
  "ĠBran": 22129,
  "ĠBranch": 28474,
  "ĠBrand": 7409,
  "ĠBrandon": 10782,
  "ĠBray": 24495,
  "ĠBrazil": 14668,
  "ĠBre": 5347,
  "ĠBreak": 20181,
  "ĠBreat": 18270,
  "ĠBreck": 29342,
  "ĠBree": 21237,
  "ĠBren": 13741,
  "ĠBrenda": 16207,
  "ĠBrendan": 19472,
  "ĠBrenna": 28625,
  "ĠBrent": 19217,
  "ĠBret": 26276,
  "ĠBrethren": 21782,
  "ĠBrett": 19057,
  "ĠBrew": 29578,
  "ĠBri": 14157,
  "ĠBrian": 5724,
  "ĠBrianna": 16984,
  "ĠBrick": 20471,
  "ĠBrid": 13144,
  "ĠBride": 25298,
  "ĠBridge": 14163,
  "ĠBridget": 17429,
  "ĠBrief": 28052,
  "ĠBrig": 15990,
  "ĠBright": 16321,
  "ĠBring": 18374,
  "ĠBris": 28070,
  "ĠBristol": 24590,
  "ĠBrit": 4807,
  "ĠBritain": 12867,
  "ĠBritish": 6210,
  "ĠBritt": 16485,
  "ĠBrittany": 22683,
  "ĠBro": 4401,
  "ĠBroad": 19202,
  "ĠBrock": 17224,
  "ĠBrody": 21245,
  "ĠBroken": 28395,
  "ĠBron": 17520,
  "ĠBrook": 14782,
  "ĠBrooke": 13874,
  "ĠBrooklyn": 19785,
  "ĠBrooks": 21632,
  "ĠBrother": 7740,
  "ĠBrotherhood": 21135,
  "ĠBrothers": 18882,
  "ĠBrown": 8328,
  "ĠBru": 19400,
  "ĠBruce": 11048,
  "ĠBrun": 29216,
  "ĠBruno": 29475,
  "ĠBry": 6495,
  "ĠBryan": 18154,
  "ĠBryant": 29059,
  "ĠBryce": 15393,
  "ĠBryn": 19980,
  "ĠBu": 6747,
  "ĠBubba": 27093,
  "ĠBuc": 27387,
  "ĠBuck": 13784,
  "ĠBud": 11210,
  "ĠBudd": 8036,
  "ĠBuddh": 19876,
  "ĠBuddha": 12401,
  "ĠBuddhism": 23972,
  "ĠBuddhist": 21083,
  "ĠBuddy": 24147,
  "ĠBuff": 21044,
  "ĠBuffalo": 29570,
  "ĠBug": 28399,
  "ĠBuild": 11789,
  "ĠBuilder": 27656,
  "ĠBuilding": 18207,
  "ĠBul": 20961,
  "ĠBull": 12108,
  "ĠBun": 25208,
  "ĠBunny": 28112,
  "ĠBur": 7547,
  "ĠBureau": 21508,
  "ĠBurke": 24447,
  "ĠBurn": 15858,
  "ĠBus": 24403,
  "ĠBush": 15143,
  "ĠBusiness": 14410,
  "ĠBuster": 29759,
  "ĠBut": 774,
  "ĠButter": 24665,
  "ĠBy": 2804,
  "ĠBye": 24103,
  "ĠByron": 22117,
  "ĠC": 394,
  "ĠCA": 11428,
  "ĠCAN": 21073,
  "ĠCAR": 25258,
  "ĠCAV": 25058,
  "ĠCAVITY": 28299,
  "ĠCC": 25139,
  "ĠCD": 6943,
  "ĠCEO": 15806,
  "ĠCH": 5843,
  "ĠCHAPTER": 9664,
  "ĠCHE": 17055,
  "ĠCHR": 28028,
  "ĠCI": 26370,
  "ĠCIA": 14513,
  "ĠCL": 10173,
  "ĠCO": 14893,
  "ĠCOM": 8971,
  "ĠCON": 8052,
  "ĠCONT": 17684,
  "ĠCONTIN": 26533,
  "ĠCONTINU": 27921,
  "ĠCONTR": 28565,
  "ĠCOP": 22435,
  "ĠCOU": 28187,
  "ĠCR": 10162,
  "ĠCRC": 25086,
  "ĠCSC": 15502,
  "ĠCSCL": 28581,
  "ĠCT": 10117,
  "ĠCTZ": 16217,
  "ĠCa": 8995,
  "ĠCab": 16505,
  "ĠCad": 12614,
  "ĠCade": 20695,
  "ĠCaesar": 20633,
  "ĠCaf": 29502,
  "ĠCain": 17385,
  "ĠCair": 23794,
  "ĠCait": 19444,
  "ĠCaitlin": 29152,
  "ĠCal": 3472,
  "ĠCald": 23124,
  "ĠCaleb": 9463,
  "ĠCalifornia": 6885,
  "ĠCall": 5702,
  "ĠCalla": 27779,
  "ĠCalli": 22221,
  "ĠCallie": 17113,
  "ĠCalm": 27631,
  "ĠCalvin": 14147,
  "ĠCam": 4418,
  "ĠCamb": 22208,
  "ĠCambridge": 16878,
  "ĠCameron": 11121,
  "ĠCamille": 23409,
  "ĠCamp": 9520,
  "ĠCampbell": 17347,
  "ĠCan": 2744,
  "ĠCana": 21661,
  "ĠCanaan": 23855,
  "ĠCanada": 9124,
  "ĠCanadian": 15322,
  "ĠCancer": 10987,
  "ĠCand": 12602,
  "ĠCandace": 27591,
  "ĠCandy": 20372,
  "ĠCant": 28193,
  "ĠCanyon": 28998,
  "ĠCap": 8747,
  "ĠCape": 20267,
  "ĠCapital": 20216,
  "ĠCapt": 25224,
  "ĠCaptain": 3890,
  "ĠCar": 1957,
  "ĠCara": 19221,
  "ĠCard": 10875,
  "ĠCardinal": 23711,
  "ĠCare": 11551,
  "ĠCarefully": 29169,
  "ĠCarib": 21752,
  "ĠCaribbean": 22808,
  "ĠCarl": 5292,
  "ĠCarla": 18871,
  "ĠCarlos": 14116,
  "ĠCarly": 20867,
  "ĠCarmen": 13504,
  "ĠCarol": 6437,
  "ĠCarolina": 14748,
  "ĠCaroline": 12774,
  "ĠCarolyn": 27827,
  "ĠCarr": 17771,
  "ĠCarrie": 13074,
  "ĠCarson": 17574,
  "ĠCart": 17863,
  "ĠCarter": 10006,
  "ĠCas": 13427,
  "ĠCase": 8668,
  "ĠCasey": 10520,
  "ĠCash": 24717,
  "ĠCass": 5444,
  "ĠCassandra": 18412,
  "ĠCassidy": 25166,
  "ĠCassie": 9253,
  "ĠCast": 8916,
  "ĠCastle": 13921,
  "ĠCat": 7557,
  "ĠCate": 28848,
  "ĠCath": 7575,
  "ĠCatherine": 10839,
  "ĠCatholic": 8839,
  "ĠCatholics": 24524,
  "ĠCathy": 17432,
  "ĠCause": 27917,
  "ĠCave": 21398,
  "ĠCay": 17069,
  "ĠCe": 13303,
  "ĠCec": 15638,
  "ĠCecil": 27751,
  "ĠCed": 18117,
  "ĠCedric": 25355,
  "ĠCelest": 13664,
  "ĠCeleste": 19793,
  "ĠCelestial": 29359,
  "ĠCelia": 24215,
  "ĠCell": 16919,
  "ĠCelt": 27252,
  "ĠCent": 4227,
  "ĠCentaur": 28444,
  "ĠCenter": 7515,
  "ĠCentral": 10576,
  "ĠCentre": 17149,
  "ĠCentury": 19902,
  "ĠCer": 17594,
  "ĠCertainly": 15534,
  "ĠCh": 892,
  "ĠCha": 2905,
  "ĠChad": 12523,
  "ĠChair": 17357,
  "ĠChairman": 22025,
  "ĠChakra": 28637,
  "ĠChal": 22906,
  "ĠChallenge": 26235,
  "ĠCham": 11027,
  "ĠChamber": 20289,
  "ĠChambers": 28090,
  "ĠChampion": 29422,
  "ĠChan": 5409,
  "ĠChance": 16826,
  "ĠChand": 15049,
  "ĠChang": 27062,
  "ĠChange": 14921,
  "ĠChannel": 19431,
  "ĠChant": 29884,
  "ĠChaos": 22814,
  "ĠChap": 17944,
  "ĠChapel": 29459,
  "ĠChapter": 2832,
  "ĠChar": 2440,
  "ĠCharity": 23486,
  "ĠCharles": 5949,
  "ĠCharley": 22320,
  "ĠCharlie": 4971,
  "ĠCharlotte": 11366,
  "ĠChase": 9048,
  "ĠChat": 27598,
  "ĠChe": 4817,
  "ĠCheck": 19287,
  "ĠChel": 11695,
  "ĠChelsea": 15059,
  "ĠChem": 18535,
  "ĠChen": 16223,
  "ĠCher": 10674,
  "ĠCherry": 21554,
  "ĠCheryl": 20996,
  "ĠChes": 29263,
  "ĠChester": 24792,
  "ĠChet": 22213,
  "ĠChevy": 29702,
  "ĠCheza": 28977,
  "ĠChi": 17151,
  "ĠChic": 9382,
  "ĠChicago": 9813,
  "ĠChicken": 27069,
  "ĠChief": 7095,
  "ĠChild": 15815,
  "ĠChildren": 10736,
  "ĠChin": 22458,
  "ĠChina": 6413,
  "ĠChinese": 6220,
  "ĠChip": 21435,
  "ĠChloe": 10286,
  "ĠChosen": 29769,
  "ĠChr": 22912,
  "ĠChris": 5423,
  "ĠChrist": 1330,
  "ĠChristian": 3427,
  "ĠChristianity": 10514,
  "ĠChristians": 5777,
  "ĠChristina": 22119,
  "ĠChristine": 16496,
  "ĠChristmas": 4806,
  "ĠChristopher": 11987,
  "ĠChron": 18004,
  "ĠChronicles": 23194,
  "ĠChuck": 12772,
  "ĠChurch": 4720,
  "ĠCind": 25962,
  "ĠCindy": 11623,
  "ĠCir": 10784,
  "ĠCircle": 19356,
  "ĠCit": 21511,
  "ĠCitiz": 22291,
  "ĠCity": 4601,
  "ĠCivil": 13520,
  "ĠCl": 1761,
  "ĠCla": 5209,
  "ĠClaim": 26783,
  "ĠClair": 25063,
  "ĠClaire": 6897,
  "ĠClan": 21593,
  "ĠClar": 10713,
  "ĠClara": 16503,
  "ĠClare": 14361,
  "ĠClarence": 26982,
  "ĠClarissa": 29904,
  "ĠClarity": 22935,
  "ĠClark": 13836,
  "ĠClarke": 29222,
  "ĠClass": 13660,
  "ĠClaud": 13885,
  "ĠClaude": 21860,
  "ĠClaudia": 18878,
  "ĠClaus": 27953,
  "ĠClay": 11753,
  "ĠClayton": 23353,
  "ĠCle": 7766,
  "ĠClean": 29336,
  "ĠClear": 12626,
  "ĠClearly": 16432,
  "ĠCleveland": 28653,
  "ĠCliff": 15338,
  "ĠClin": 17341,
  "ĠClinic": 29099,
  "ĠClinical": 28986,
  "ĠClint": 13729,
  "ĠClinton": 20729,
  "ĠClive": 20689,
  "ĠClose": 22724,
  "ĠClosing": 21305,
  "ĠCloud": 16766,
  "ĠClub": 10946,
  "ĠCly": 20932,
  "ĠClyde": 24819,
  "ĠCo": 4396,
  "ĠCoach": 15825,
  "ĠCoal": 29701,
  "ĠCoast": 14957,
  "ĠCob": 18264,
  "ĠCode": 14741,
  "ĠCody": 18527,
  "ĠCoffee": 26931,
  "ĠCohen": 25845,
  "ĠCoke": 22083,
  "ĠCol": 3082,
  "ĠColby": 24571,
  "ĠCold": 15165,
  "ĠCole": 7421,
  "ĠColin": 10961,
  "ĠColl": 4821,
  "ĠCollective": 25046,
  "ĠCollege": 10034,
  "ĠCollins": 16260,
  "ĠColomb": 28564,
  "ĠColon": 29540,
  "ĠColonel": 8745,
  "ĠColor": 14481,
  "ĠColorado": 16474,
  "ĠColt": 14889,
  "ĠColton": 24050,
  "ĠColumb": 14348,
  "ĠColumbia": 20143,
  "ĠCom": 2009,
  "ĠComb": 28153,
  "ĠCome": 5170,
  "ĠComing": 16098,
  "ĠComm": 3656,
  "ĠCommand": 12014,
  "ĠCommander": 8616,
  "ĠCommission": 12888,
  "ĠCommissioner": 29200,
  "ĠCommittee": 14619,
  "ĠCommon": 15279,
  "ĠCommonwealth": 26157,
  "ĠCommun": 7730,
  "ĠCommunism": 29318,
  "ĠCommunist": 21770,
  "ĠCommunity": 19605,
  "ĠComp": 7304,
  "ĠCompan": 19582,
  "ĠCompanions": 29223,
  "ĠCompany": 11071,
  "ĠComplete": 23500,
  "ĠComputer": 21247,
  "ĠCon": 2331,
  "ĠConc": 24290,
  "ĠCond": 20358,
  "ĠConf": 8182,
  "ĠConfed": 21594,
  "ĠConference": 22720,
  "ĠCong": 8459,
  "ĠCongress": 11305,
  "ĠConn": 24637,
  "ĠConnect": 19732,
  "ĠConnie": 13448,
  "ĠConnor": 9315,
  "ĠConrad": 26739,
  "ĠCons": 7178,
  "ĠConsciousness": 19170,
  "ĠConsequently": 21958,
  "ĠConsider": 17513,
  "ĠConsidering": 23894,
  "ĠConst": 7580,
  "ĠConstable": 27088,
  "ĠConstance": 27235,
  "ĠConstitution": 14569,
  "ĠCont": 4704,
  "ĠContents": 10419,
  "ĠContin": 17879,
  "ĠControl": 15274,
  "ĠConvention": 24666,
  "ĠCook": 16426,
  "ĠCool": 22942,
  "ĠCooper": 12836,
  "ĠCop": 18590,
  "ĠCopyright": 20449,
  "ĠCor": 3169,
  "ĠCora": 24152,
  "ĠCoral": 26050,
  "ĠCorbin": 28455,
  "ĠCord": 17430,
  "ĠCore": 17499,
  "ĠCorey": 26334,
  "ĠCorinne": 27121,
  "ĠCorinth": 9644,
  "ĠCorinthians": 10583,
  "ĠCorn": 12016,
  "ĠCorpor": 11524,
  "ĠCorporal": 23136,
  "ĠCorporation": 18383,
  "ĠCorps": 14255,
  "ĠCort": 25458,
  "ĠCory": 26120,
  "ĠCos": 25965,
  "ĠCosm": 18141,
  "ĠCosmic": 28685,
  "ĠCost": 15755,
  "ĠCosta": 28991,
  "ĠCott": 26795,
  "ĠCou": 21622,
  "ĠCould": 6119,
  "ĠCouldn": 21616,
  "ĠCoun": 4723,
  "ĠCouncil": 5137,
  "ĠCount": 6700,
  "ĠCountry": 20454,
  "ĠCounty": 11375,
  "ĠCour": 6184,
  "ĠCourse": 28457,
  "ĠCourt": 7134,
  "ĠCourtney": 21719,
  "ĠCove": 28145,
  "ĠCovenant": 19830,
  "ĠCow": 16939,
  "ĠCowboy": 28612,
  "ĠCox": 28789,
  "ĠCoy": 28498,
  "ĠCr": 6044,
  "ĠCra": 8774,
  "ĠCraig": 11502,
  "ĠCrane": 29457,
  "ĠCraw": 19343,
  "ĠCrawford": 29193,
  "ĠCrazy": 27848,
  "ĠCre": 9493,
  "ĠCreat": 7312,
  "ĠCreation": 14491,
  "ĠCreative": 23331,
  "ĠCreator": 9872,
  "ĠCreek": 17856,
  "ĠCrim": 17750,
  "ĠCrime": 29392,
  "ĠCris": 21400,
  "ĠCrist": 25863,
  "ĠCro": 15428,
  "ĠCross": 9699,
  "ĠCrow": 17986,
  "ĠCrown": 16383,
  "ĠCru": 13028,
  "ĠCrus": 28084,
  "ĠCruz": 23471,
  "ĠCry": 9438,
  "ĠCrystal": 11488,
  "ĠCtr": 25466,
  "ĠCu": 29836,
  "ĠCub": 12389,
  "ĠCuba": 22985,
  "ĠCuban": 26809,
  "ĠCul": 29837,
  "ĠCullen": 15618,
  "ĠCulture": 24529,
  "ĠCup": 25429,
  "ĠCur": 8324,
  "ĠCurrent": 21104,
  "ĠCurt": 15329,
  "ĠCurtis": 19848,
  "ĠCustom": 23993,
  "ĠCut": 22255,
  "ĠCy": 6509,
  "ĠCyn": 21607,
  "ĠCynara": 28655,
  "ĠCynthia": 18946,
  "ĠCyrus": 24059,
  "ĠCzech": 29474,
  "ĠD": 448,
  "ĠDA": 25531,
  "ĠDAY": 20789,
  "ĠDC": 13605,
  "ĠDE": 12183,
  "ĠDI": 29856,
  "ĠDIS": 19630,
  "ĠDIV": 28243,
  "ĠDJ": 22576,
  "ĠDNA": 6241,
  "ĠDO": 11270,
  "ĠDON": 29519,
  "ĠDOWN": 16566,
  "ĠDR": 19646,
  "ĠDRI": 23674,
  "ĠDVD": 20095,
  "ĠDa": 5360,
  "ĠDad": 2866,
  "ĠDada": 27077,
  "ĠDaddy": 9068,
  "ĠDaily": 23443,
  "ĠDaisy": 14468,
  "ĠDak": 19327,
  "ĠDakota": 26146,
  "ĠDal": 13875,
  "ĠDale": 13521,
  "ĠDallas": 15057,
  "ĠDalton": 20012,
  "ĠDam": 6236,
  "ĠDamasc": 28745,
  "ĠDamascus": 29679,
  "ĠDame": 18799,
  "ĠDamian": 20868,
  "ĠDamien": 14358,
  "ĠDamn": 10859,
  "ĠDamon": 21463,
  "ĠDan": 2038,
  "ĠDana": 10209,
  "ĠDance": 21158,
  "ĠDane": 16872,
  "ĠDani": 14822,
  "ĠDaniel": 4189,
  "ĠDanielle": 18301,
  "ĠDaniels": 24755,
  "ĠDanny": 5763,
  "ĠDante": 14039,
  "ĠDaphne": 26706,
  "ĠDar": 3755,
  "ĠDarcy": 24460,
  "ĠDarius": 18015,
  "ĠDark": 6000,
  "ĠDarkness": 17871,
  "ĠDarla": 26182,
  "ĠDarlene": 29972,
  "ĠDarren": 18478,
  "ĠDarwin": 8782,
  "ĠDarwinism": 22751,
  "ĠDary": 24095,
  "ĠDaryl": 29808,
  "ĠDas": 28825,
  "ĠData": 21101,
  "ĠDaughter": 25114,
  "ĠDav": 2451,
  "ĠDave": 6132,
  "ĠDaven": 27132,
  "ĠDavid": 2813,
  "ĠDavies": 28777,
  "ĠDavis": 10800,
  "ĠDaw": 16656,
  "ĠDawn": 12249,
  "ĠDax": 22785,
  "ĠDay": 4711,
  "ĠDays": 20162,
  "ĠDe": 1601,
  "ĠDeacon": 29160,
  "ĠDead": 11630,
  "ĠDeal": 25986,
  "ĠDean": 10285,
  "ĠDear": 19089,
  "ĠDeath": 7780,
  "ĠDeb": 17932,
  "ĠDebbie": 13011,
  "ĠDeborah": 22885,
  "ĠDec": 7699,
  "ĠDecember": 8293,
  "ĠDeck": 22995,
  "ĠDeclan": 19322,
  "ĠDee": 15277,
  "ĠDeep": 12820,
  "ĠDef": 8373,
  "ĠDefense": 18814,
  "ĠDefinitely": 28228,
  "ĠDefinition": 29144,
  "ĠDeirdre": 28104,
  "ĠDel": 5495,
  "ĠDelhi": 27788,
  "ĠDelilah": 21756,
  "ĠDelta": 26439,
  "ĠDem": 5868,
  "ĠDemet": 25700,
  "ĠDemocr": 12033,
  "ĠDemocratic": 24808,
  "ĠDemocrats": 25604,
  "ĠDemon": 18380,
  "ĠDen": 7658,
  "ĠDenise": 18072,
  "ĠDennis": 14912,
  "ĠDenny": 27298,
  "ĠDenver": 21026,
  "ĠDep": 6056,
  "ĠDepartment": 8892,
  "ĠDeputy": 20621,
  "ĠDer": 10943,
  "ĠDerek": 9811,
  "ĠDerrick": 21284,
  "ĠDes": 3949,
  "ĠDesert": 26202,
  "ĠDesign": 17866,
  "ĠDesire": 26406,
  "ĠDesmond": 21640,
  "ĠDespite": 6866,
  "ĠDest": 12063,
  "ĠDestiny": 22567,
  "ĠDestroy": 25907,
  "ĠDet": 6518,
  "ĠDetective": 10048,
  "ĠDetroit": 26209,
  "ĠDev": 5326,
  "ĠDevelop": 13079,
  "ĠDevelopment": 15524,
  "ĠDevil": 11831,
  "ĠDevin": 21006,
  "ĠDevlin": 25153,
  "ĠDevon": 14407,
  "ĠDew": 26527,
  "ĠDex": 20862,
  "ĠDh": 26496,
  "ĠDi": 8555,
  "ĠDia": 28646,
  "ĠDiamond": 21171,
  "ĠDiana": 14342,
  "ĠDiane": 10251,
  "ĠDick": 10004,
  "ĠDid": 3092,
  "ĠDidn": 10665,
  "ĠDie": 10992,
  "ĠDiego": 15607,
  "ĠDiet": 26013,
  "ĠDifferent": 24397,
  "ĠDig": 15195,
  "ĠDigital": 27596,
  "ĠDillon": 21618,
  "ĠDim": 14559,
  "ĠDimitri": 27578,
  "ĠDin": 21998,
  "ĠDinner": 29657,
  "ĠDion": 28477,
  "ĠDire": 10773,
  "ĠDirect": 19146,
  "ĠDirector": 11709,
  "ĠDirk": 24858,
  "ĠDis": 6776,
  "ĠDisc": 13555,
  "ĠDise": 24229,
  "ĠDisease": 28294,
  "ĠDisney": 23710,
  "ĠDist": 11069,
  "ĠDistrict": 17163,
  "ĠDiv": 6406,
  "ĠDivine": 9081,
  "ĠDivision": 17067,
  "ĠDj": 26402,
  "ĠDmit": 26337,
  "ĠDo": 1735,
  "ĠDoc": 9248,
  "ĠDoctor": 7080,
  "ĠDod": 18449,
  "ĠDodge": 22911,
  "ĠDoes": 6298,
  "ĠDoesn": 18145,
  "ĠDog": 10648,
  "ĠDoing": 25323,
  "ĠDol": 20686,
  "ĠDoll": 23430,
  "ĠDom": 14241,
  "ĠDomin": 9071,
  "ĠDominic": 14306,
  "ĠDon": 2199,
  "ĠDonald": 13093,
  "ĠDonna": 13589,
  "ĠDonnie": 27180,
  "ĠDonny": 22898,
  "ĠDonovan": 18578,
  "ĠDoor": 27705,
  "ĠDor": 7524,
  "ĠDora": 28918,
  "ĠDorian": 21736,
  "ĠDoris": 23665,
  "ĠDorothy": 21076,
  "ĠDou": 6847,
  "ĠDouble": 28402,
  "ĠDoug": 11900,
  "ĠDouglas": 15622,
  "ĠDown": 10902,
  "ĠDoyle": 29734,
  "ĠDr": 2805,
  "ĠDra": 6862,
  "ĠDrac": 28237,
  "ĠDrag": 6819,
  "ĠDragon": 8095,
  "ĠDragons": 24322,
  "ĠDrake": 10026,
  "ĠDray": 28235,
  "ĠDre": 16553,
  "ĠDream": 10692,
  "ĠDreams": 25974,
  "ĠDreen": 27607,
  "ĠDrew": 9884,
  "ĠDrive": 21797,
  "ĠDro": 20218,
  "ĠDru": 18378,
  "ĠDrug": 23296,
  "ĠDry": 24299,
  "ĠDu": 12549,
  "ĠDub": 14136,
  "ĠDublin": 23807,
  "ĠDue": 20936,
  "ĠDuke": 10930,
  "ĠDun": 7966,
  "ĠDuncan": 14749,
  "ĠDur": 13461,
  "ĠDuring": 7539,
  "ĠDust": 27714,
  "ĠDusty": 25449,
  "ĠDutch": 16366,
  "ĠDw": 27368,
  "ĠDwar": 28442,
  "ĠDy": 26277,
  "ĠDylan": 9522,
  "ĠDyn": 26048,
  "ĠE": 500,
  "ĠECO": 11573,
  "ĠED": 22079,
  "ĠEGFR": 19398,
  "ĠEL": 21427,
  "ĠEM": 8159,
  "ĠEMISSIONS": 17802,
  "ĠEMT": 23403,
  "ĠEN": 9117,
  "ĠEND": 21045,
  "ĠENG": 12915,
  "ĠEP": 29778,
  "ĠER": 13031,
  "ĠERE": 22090,
  "ĠERECTION": 27063,
  "ĠET": 25726,
  "ĠEU": 20988,
  "ĠEV": 26093,
  "ĠEVER": 25146,
  "ĠEX": 11363,
  "ĠEXT": 26549,
  "ĠEach": 4748,
  "ĠEagle": 15940,
  "ĠEarl": 11527,
  "ĠEarly": 19489,
  "ĠEarth": 2765,
  "ĠEast": 6102,
  "ĠEaster": 18283,
  "ĠEastern": 13468,
  "ĠEasy": 25145,
  "ĠEat": 28597,
  "ĠEb": 18205,
  "ĠEc": 19447,
  "ĠEcho": 19754,
  "ĠEconom": 16018,
  "ĠEconomic": 26269,
  "ĠEd": 2307,
  "ĠEddie": 9226,
  "ĠEddy": 19053,
  "ĠEden": 12745,
  "ĠEdgar": 17111,
  "ĠEdge": 23570,
  "ĠEdith": 25632,
  "ĠEdition": 10120,
  "ĠEdmund": 23359,
  "ĠEdna": 22758,
  "ĠEduc": 14073,
  "ĠEducation": 16160,
  "ĠEdward": 8310,
  "ĠEdwards": 25301,
  "ĠEdwin": 22460,
  "ĠEff": 15192,
  "ĠEgypt": 6296,
  "ĠEgyptian": 16450,
  "ĠEgyptians": 25591,
  "ĠEh": 29307,
  "ĠEhl": 21765,
  "ĠEhlana": 22476,
  "ĠEight": 11384,
  "ĠEighteen": 29751,
  "ĠEin": 14751,
  "ĠEinstein": 17370,
  "ĠEither": 9769,
  "ĠEk": 20846,
  "ĠEl": 1981,
  "ĠElaine": 18216,
  "ĠEld": 8785,
  "ĠElder": 15855,
  "ĠElders": 20790,
  "ĠEle": 7613,
  "ĠEleanor": 14302,
  "ĠElect": 11465,
  "ĠElectra": 28111,
  "ĠElectric": 28067,
  "ĠElement": 19986,
  "ĠElena": 17416,
  "ĠEleven": 21234,
  "ĠElf": 21565,
  "ĠEli": 11083,
  "ĠElias": 27680,
  "ĠElijah": 11870,
  "ĠElis": 29497,
  "ĠElise": 13946,
  "ĠEliza": 17838,
  "ĠElizabeth": 6020,
  "ĠEll": 4557,
  "ĠElla": 13994,
  "ĠElle": 20168,
  "ĠEllen": 11308,
  "ĠElli": 23558,
  "ĠEllie": 12110,
  "ĠElliot": 17966,
  "ĠElliott": 27933,
  "ĠEllis": 23487,
  "ĠElly": 29390,
  "ĠEls": 20283,
  "ĠElsa": 23414,
  "ĠElsie": 29186,
  "ĠElves": 27854,
  "ĠElvis": 18318,
  "ĠEly": 22655,
  "ĠEm": 2206,
  "ĠEmb": 17453,
  "ĠEmer": 11236,
  "ĠEmerson": 29363,
  "ĠEmery": 21199,
  "ĠEmil": 18591,
  "ĠEmily": 6533,
  "ĠEmm": 24910,
  "ĠEmma": 6433,
  "ĠEmperor": 11508,
  "ĠEmpire": 9353,
  "ĠEmploy": 24506,
  "ĠEmpress": 21822,
  "ĠEn": 3820,
  "ĠEnc": 28257,
  "ĠEnd": 8287,
  "ĠEnemy": 29874,
  "ĠEnergy": 16304,
  "ĠEng": 2789,
  "ĠEngine": 17252,
  "ĠEngineering": 26980,
  "ĠEngland": 6602,
  "ĠEnglish": 3851,
  "ĠEnjoy": 23647,
  "ĠEnlight": 26125,
  "ĠEnlightenment": 29942,
  "ĠEnoch": 26714,
  "ĠEnough": 21708,
  "ĠEns": 28460,
  "ĠEnt": 12465,
  "ĠEnter": 17504,
  "ĠEnvironment": 21567,
  "ĠEp": 10638,
  "ĠEph": 24544,
  "ĠEphesians": 25587,
  "ĠEpic": 24335,
  "ĠEqu": 19344,
  "ĠEr": 5976,
  "ĠEric": 4308,
  "ĠErica": 19269,
  "ĠErick": 28610,
  "ĠErik": 13912,
  "ĠErin": 11546,
  "ĠErnest": 20178,
  "ĠErnie": 25540,
  "ĠEros": 28631,
  "ĠEs": 6380,
  "ĠEsc": 23103,
  "ĠEsp": 29369,
  "ĠEspecially": 10159,
  "ĠEss": 14701,
  "ĠEssence": 28575,
  "ĠEst": 7552,
  "ĠEsther": 17696,
  "ĠEt": 18105,
  "ĠEternal": 21562,
  "ĠEth": 17557,
  "ĠEthan": 6283,
  "ĠEug": 18648,
  "ĠEugene": 21392,
  "ĠEur": 4250,
  "ĠEuropa": 28011,
  "ĠEurope": 4752,
  "ĠEuropean": 8930,
  "ĠEuropeans": 28238,
  "ĠEv": 3105,
  "ĠEva": 11498,
  "ĠEvan": 10995,
  "ĠEvangel": 27609,
  "ĠEvans": 18643,
  "ĠEve": 5309,
  "ĠEvelyn": 12896,
  "ĠEven": 2160,
  "ĠEvent": 8537,
  "ĠEventually": 9078,
  "ĠEver": 9370,
  "ĠEvery": 2107,
  "ĠEverybody": 14962,
  "ĠEveryone": 4733,
  "ĠEverything": 4956,
  "ĠEverywhere": 27681,
  "ĠEvie": 20957,
  "ĠEvil": 16012,
  "ĠEvolution": 15303,
  "ĠEx": 2995,
  "ĠExam": 21490,
  "ĠExc": 29091,
  "ĠExcept": 10769,
  "ĠExec": 18620,
  "ĠExecutive": 24082,
  "ĠExodus": 24500,
  "ĠExp": 22240,
  "ĠExper": 14936,
  "ĠExperience": 28241,
  "ĠExpl": 18375,
  "ĠExpress": 29857,
  "ĠExt": 15070,
  "ĠEye": 17387,
  "ĠEyes": 16149,
  "ĠEz": 11792,
  "ĠEzekiel": 24949,
  "ĠEzra": 20063,
  "ĠF": 515,
  "ĠFA": 14847,
  "ĠFAO": 21470,
  "ĠFBI": 9702,
  "ĠFE": 15217,
  "ĠFEET": 28756,
  "ĠFEMALE": 21952,
  "ĠFL": 7729,
  "ĠFLESH": 25443,
  "ĠFLU": 19891,
  "ĠFO": 18454,
  "ĠFOOT": 24932,
  "ĠFOR": 7761,
  "ĠFOUR": 27524,
  "ĠFR": 12567,
  "ĠFRE": 6755,
  "ĠFREE": 11380,
  "ĠFROM": 17049,
  "ĠFa": 5946,
  "ĠFab": 20088,
  "ĠFac": 20483,
  "ĠFace": 9632,
  "ĠFacebook": 12092,
  "ĠFact": 26180,
  "ĠFactory": 27321,
  "ĠFae": 23085,
  "ĠFail": 23661,
  "ĠFailure": 27664,
  "ĠFair": 9595,
  "ĠFairy": 20874,
  "ĠFaith": 8674,
  "ĠFal": 10897,
  "ĠFalcon": 20605,
  "ĠFall": 8579,
  "ĠFalls": 18529,
  "ĠFam": 8482,
  "ĠFamily": 11350,
  "ĠFant": 20752,
  "ĠFantasy": 26781,
  "ĠFar": 6961,
  "ĠFarm": 20051,
  "ĠFast": 27483,
  "ĠFat": 13864,
  "ĠFate": 20888,
  "ĠFather": 3149,
  "ĠFay": 17037,
  "ĠFe": 8790,
  "ĠFear": 12127,
  "ĠFeather": 29379,
  "ĠFebruary": 9865,
  "ĠFed": 8464,
  "ĠFederal": 13913,
  "ĠFederation": 18665,
  "ĠFeed": 26191,
  "ĠFeel": 20737,
  "ĠFeeling": 15213,
  "ĠFel": 8623,
  "ĠFelicia": 28221,
  "ĠFelicity": 24283,
  "ĠFelix": 16902,
  "ĠFell": 27242,
  "ĠFem": 19079,
  "ĠFen": 16248,
  "ĠFer": 9518,
  "ĠFergus": 24721,
  "ĠFern": 16898,
  "ĠFest": 21337,
  "ĠFestival": 26545,
  "ĠFew": 19272,
  "ĠFey": 28967,
  "ĠFiction": 21858,
  "ĠField": 12492,
  "ĠFif": 12000,
  "ĠFifteen": 21561,
  "ĠFifth": 26995,
  "ĠFifty": 25328,
  "ĠFig": 25613,
  "ĠFight": 16710,
  "ĠFighting": 28553,
  "ĠFigure": 25339,
  "ĠFil": 18106,
  "ĠFin": 8565,
  "ĠFinal": 23780,
  "ĠFinally": 5119,
  "ĠFinancial": 28869,
  "ĠFind": 14841,
  "ĠFinding": 19437,
  "ĠFine": 20128,
  "ĠFinn": 12683,
  "ĠFiona": 18001,
  "ĠFire": 7934,
  "ĠFirst": 4256,
  "ĠFish": 20119,
  "ĠFisher": 22715,
  "ĠFitz": 15025,
  "ĠFive": 8757,
  "ĠFl": 3320,
  "ĠFlame": 29774,
  "ĠFlaming": 22850,
  "ĠFlamingo": 24472,
  "ĠFlash": 29364,
  "ĠFlat": 28027,
  "ĠFle": 13073,
  "ĠFleet": 20523,
  "ĠFletcher": 20169,
  "ĠFlight": 28058,
  "ĠFlint": 24187,
  "ĠFlo": 25614,
  "ĠFlor": 8966,
  "ĠFlora": 29348,
  "ĠFlore": 24237,
  "ĠFlorence": 26319,
  "ĠFlorida": 10044,
  "ĠFly": 28201,
  "ĠFlying": 29418,
  "ĠFlynn": 20915,
  "ĠFocus": 24782,
  "ĠFollow": 20317,
  "ĠFollowing": 17126,
  "ĠFood": 12702,
  "ĠFoot": 19580,
  "ĠFor": 1459,
  "ĠForce": 9886,
  "ĠForces": 20066,
  "ĠFord": 11952,
  "ĠFore": 6884,
  "ĠForeign": 20885,
  "ĠForest": 10308,
  "ĠForever": 28820,
  "ĠForget": 20384,
  "ĠForgive": 29747,
  "ĠForm": 11254,
  "ĠFort": 8493,
  "ĠFortunately": 12207,
  "ĠForty": 20942,
  "ĠFoster": 19683,
  "ĠFound": 10353,
  "ĠFoundation": 13944,
  "ĠFour": 6454,
  "ĠFourteen": 26288,
  "ĠFourth": 22127,
  "ĠFox": 10991,
  "ĠFr": 1504,
  "ĠFra": 22504,
  "ĠFran": 15706,
  "ĠFranc": 6196,
  "ĠFrance": 8154,
  "ĠFrances": 16419,
  "ĠFrancesca": 29691,
  "ĠFrancis": 7271,
  "ĠFrancisco": 11062,
  "ĠFrank": 3713,
  "ĠFrankie": 15862,
  "ĠFranklin": 14519,
  "ĠFranz": 26283,
  "ĠFre": 8223,
  "ĠFred": 5492,
  "ĠFreddie": 19895,
  "ĠFreddy": 23482,
  "ĠFrederick": 19544,
  "ĠFree": 10888,
  "ĠFreedom": 16908,
  "ĠFrench": 5105,
  "ĠFreq": 19852,
  "ĠFresh": 28053,
  "ĠFrey": 4101,
  "ĠFreya": 23258,
  "ĠFreyja": 4345,
  "ĠFri": 29523,
  "ĠFriday": 6327,
  "ĠFried": 20475,
  "ĠFriend": 12870,
  "ĠFriends": 21169,
  "ĠFro": 28146,
  "ĠFrom": 3471,
  "ĠFront": 19541,
  "ĠFrost": 18640,
  "ĠFu": 27040,
  "ĠFuck": 14009,
  "ĠFucking": 29401,
  "ĠFull": 16550,
  "ĠFun": 25414,
  "ĠFund": 19504,
  "ĠFunny": 25490,
  "ĠFur": 7346,
  "ĠFurther": 8430,
  "ĠFurthermore": 12784,
  "ĠFuture": 19733,
  "ĠG": 463,
  "ĠGEO": 11932,
  "ĠGET": 25990,
  "ĠGL": 23154,
  "ĠGM": 26261,
  "ĠGO": 17957,
  "ĠGOD": 8173,
  "ĠGPS": 19205,
  "ĠGR": 14738,
  "ĠGU": 29346,
  "ĠGa": 13910,
  "ĠGab": 4300,
  "ĠGabby": 21989,
  "ĠGabe": 10771,
  "ĠGabri": 19675,
  "ĠGabriel": 6514,
  "ĠGabrielle": 26574,
  "ĠGad": 28955,
  "ĠGage": 18978,
  "ĠGaia": 26060,
  "ĠGail": 23565,
  "ĠGal": 6338,
  "ĠGalactic": 19036,
  "ĠGalatians": 29649,
  "ĠGalaxy": 28430,
  "ĠGale": 24800,
  "ĠGalilee": 25970,
  "ĠGall": 12528,
  "ĠGam": 28740,
  "ĠGame": 17972,
  "ĠGames": 25238,
  "ĠGand": 23743,
  "ĠGar": 7028,
  "ĠGarc": 23125,
  "ĠGarcia": 25588,
  "ĠGard": 23713,
  "ĠGarden": 12444,
  "ĠGardens": 25074,
  "ĠGareth": 20517,
  "ĠGarrett": 18206,
  "ĠGarth": 17607,
  "ĠGary": 9808,
  "ĠGas": 23827,
  "ĠGate": 14399,
  "ĠGates": 24300,
  "ĠGavin": 10168,
  "ĠGay": 26043,
  "ĠGaz": 29347,
  "ĠGe": 2700,
  "ĠGem": 13858,
  "ĠGemma": 24606,
  "ĠGen": 3357,
  "ĠGene": 11105,
  "ĠGener": 20895,
  "ĠGeneral": 5011,
  "ĠGenesis": 12530,
  "ĠGeneva": 27061,
  "ĠGenevieve": 28426,
  "ĠGent": 9565,
  "ĠGentile": 26078,
  "ĠGentiles": 15029,
  "ĠGeoff": 11896,
  "ĠGeoffrey": 18596,
  "ĠGeorg": 8494,
  "ĠGeorge": 4159,
  "ĠGeorgia": 13038,
  "ĠGer": 3615,
  "ĠGerald": 14282,
  "ĠGerm": 14110,
  "ĠGerman": 4958,
  "ĠGermans": 15565,
  "ĠGermany": 9185,
  "ĠGerry": 19720,
  "ĠGert": 20887,
  "ĠGertrude": 28871,
  "ĠGet": 5086,
  "ĠGetting": 14500,
  "ĠGhost": 10805,
  "ĠGi": 17561,
  "ĠGiant": 28903,
  "ĠGib": 17368,
  "ĠGideon": 20458,
  "ĠGift": 28550,
  "ĠGil": 10608,
  "ĠGilbert": 29147,
  "ĠGill": 20425,
  "ĠGilles": 27906,
  "ĠGillian": 25762,
  "ĠGina": 14077,
  "ĠGinger": 18019,
  "ĠGinny": 28375,
  "ĠGiovanni": 27888,
  "ĠGirl": 11378,
  "ĠGirls": 21833,
  "ĠGis": 21611,
  "ĠGive": 8798,
  "ĠGiven": 15054,
  "ĠGiving": 22506,
  "ĠGl": 3589,
  "ĠGlad": 21826,
  "ĠGlancing": 22318,
  "ĠGlass": 22532,
  "ĠGle": 21968,
  "ĠGlen": 16013,
  "ĠGlenn": 20585,
  "ĠGlobal": 17524,
  "ĠGlock": 28101,
  "ĠGloria": 18525,
  "ĠGlory": 18569,
  "ĠGn": 19189,
  "ĠGnan": 29545,
  "ĠGo": 4419,
  "ĠGob": 26126,
  "ĠGod": 801,
  "ĠGodd": 13007,
  "ĠGoddess": 15206,
  "ĠGods": 12102,
  "ĠGoing": 16859,
  "ĠGol": 22828,
  "ĠGold": 7786,
  "ĠGolden": 13677,
  "ĠGon": 26014,
  "ĠGone": 24865,
  "ĠGoo": 13881,
  "ĠGood": 4289,
  "ĠGoogle": 16410,
  "ĠGor": 17649,
  "ĠGordon": 11432,
  "ĠGospel": 10271,
  "ĠGospels": 28453,
  "ĠGot": 11513,
  "ĠGoth": 29135,
  "ĠGover": 6530,
  "ĠGovern": 29304,
  "ĠGovernment": 9181,
  "ĠGovernor": 14637,
  "ĠGr": 2272,
  "ĠGra": 10016,
  "ĠGrabbing": 24714,
  "ĠGrace": 5751,
  "ĠGracie": 21573,
  "ĠGrad": 20251,
  "ĠGrady": 29227,
  "ĠGraham": 13116,
  "ĠGram": 23963,
  "ĠGran": 16380,
  "ĠGrand": 4383,
  "ĠGrandfather": 22404,
  "ĠGrandma": 10653,
  "ĠGrandmother": 24138,
  "ĠGrandpa": 13015,
  "ĠGranny": 22335,
  "ĠGrant": 9587,
  "ĠGranted": 29871,
  "ĠGray": 10372,
  "ĠGrayson": 23031,
  "ĠGre": 9723,
  "ĠGreat": 4563,
  "ĠGree": 11706,
  "ĠGreece": 17122,
  "ĠGreek": 6092,
  "ĠGreeks": 21783,
  "ĠGreen": 6524,
  "ĠGreene": 28496,
  "ĠGreg": 6097,
  "ĠGregory": 16614,
  "ĠGret": 16340,
  "ĠGreta": 27643,
  "ĠGrey": 10798,
  "ĠGri": 27207,
  "ĠGriff": 12106,
  "ĠGriffin": 15061,
  "ĠGrim": 17420,
  "ĠGro": 18547,
  "ĠGround": 26081,
  "ĠGroup": 12840,
  "ĠGrove": 24890,
  "ĠGru": 18395,
  "ĠGry": 28261,
  "ĠGu": 2918,
  "ĠGuard": 6425,
  "ĠGuardian": 14325,
  "ĠGuardians": 18678,
  "ĠGuards": 20230,
  "ĠGuess": 20351,
  "ĠGuide": 14975,
  "ĠGuild": 18625,
  "ĠGulf": 18288,
  "ĠGun": 10401,
  "ĠGur": 17993,
  "ĠGuru": 19572,
  "ĠGus": 14522,
  "ĠGust": 24463,
  "ĠGuy": 13408,
  "ĠGw": 21745,
  "ĠGwen": 13486,
  "ĠGwyn": 28493,
  "ĠGy": 19331,
  "ĠH": 356,
  "ĠHA": 26599,
  "ĠHAND": 19106,
  "ĠHANDS": 28537,
  "ĠHAVE": 23942,
  "ĠHCC": 26765,
  "ĠHE": 8320,
  "ĠHEAD": 14948,
  "ĠHER": 11730,
  "ĠHERE": 25096,
  "ĠHIM": 28038,
  "ĠHIS": 10948,
  "ĠHIV": 21196,
  "ĠHOR": 28249,
  "ĠHR": 22881,
  "ĠHUM": 25592,
  "ĠHa": 8197,
  "ĠHab": 22164,
  "ĠHad": 4523,
  "ĠHades": 16530,
  "ĠHadrat": 28258,
  "ĠHailey": 21805,
  "ĠHait": 28424,
  "ĠHak": 25684,
  "ĠHal": 6845,
  "ĠHale": 25164,
  "ĠHaley": 21197,
  "ĠHalf": 11509,
  "ĠHall": 5933,
  "ĠHallow": 16810,
  "ĠHalloween": 17997,
  "ĠHam": 6960,
  "ĠHamilton": 20366,
  "ĠHamm": 29009,
  "ĠHammer": 21730,
  "ĠHan": 9806,
  "ĠHand": 10558,
  "ĠHands": 24984,
  "ĠHang": 27367,
  "ĠHank": 10510,
  "ĠHanna": 25358,
  "ĠHannah": 9412,
  "ĠHans": 10921,
  "ĠHansum": 27128,
  "ĠHapp": 18017,
  "ĠHappiness": 26227,
  "ĠHappy": 16783,
  "ĠHar": 2677,
  "ĠHarbor": 27217,
  "ĠHard": 10247,
  "ĠHarley": 20966,
  "ĠHarmony": 20636,
  "ĠHarold": 13793,
  "ĠHarper": 14640,
  "ĠHarr": 9085,
  "ĠHarriet": 25644,
  "ĠHarris": 14582,
  "ĠHarrison": 17010,
  "ĠHarry": 6108,
  "ĠHart": 11808,
  "ĠHarvard": 19791,
  "ĠHarvey": 16873,
  "ĠHas": 10410,
  "ĠHass": 25788,
  "ĠHast": 24991,
  "ĠHat": 19088,
  "ĠHav": 22957,
  "ĠHave": 5154,
  "ĠHaven": 14190,
  "ĠHaving": 8664,
  "ĠHaw": 7246,
  "ĠHawai": 17082,
  "ĠHawaii": 22068,
  "ĠHawk": 17399,
  "ĠHay": 8725,
  "ĠHayden": 19265,
  "ĠHayes": 29084,
  "ĠHayley": 27618,
  "ĠHaz": 15408,
  "ĠHazel": 23295,
  "ĠHe": 411,
  "ĠHead": 9640,
  "ĠHealer": 27227,
  "ĠHealing": 23229,
  "ĠHealth": 10169,
  "ĠHear": 25724,
  "ĠHearing": 21769,
  "ĠHeart": 9167,
  "ĠHeat": 26766,
  "ĠHeath": 17556,
  "ĠHeather": 10318,
  "ĠHeaven": 6628,
  "ĠHeavenly": 29393,
  "ĠHebrew": 9540,
  "ĠHebrews": 18987,
  "ĠHeck": 28748,
  "ĠHector": 15012,
  "ĠHed": 24864,
  "ĠHeidi": 26418,
  "ĠHein": 23956,
  "ĠHel": 3693,
  "ĠHelen": 5814,
  "ĠHelena": 14660,
  "ĠHelga": 27447,
  "ĠHell": 4792,
  "ĠHello": 25060,
  "ĠHelp": 13818,
  "ĠHem": 21363,
  "ĠHen": 4162,
  "ĠHence": 14493,
  "ĠHend": 15473,
  "ĠHenderson": 25406,
  "ĠHenri": 15076,
  "ĠHenrietta": 26835,
  "ĠHenry": 5022,
  "ĠHer": 1179,
  "ĠHera": 26293,
  "ĠHerbert": 27362,
  "ĠHercules": 29271,
  "ĠHere": 4142,
  "ĠHereafter": 21838,
  "ĠHerman": 29590,
  "ĠHero": 20841,
  "ĠHerod": 25297,
  "ĠHerr": 27301,
  "ĠHers": 29601,
  "ĠHes": 24829,
  "ĠHex": 24458,
  "ĠHey": 11758,
  "ĠHi": 22285,
  "ĠHidden": 29189,
  "ĠHide": 25277,
  "ĠHier": 28333,
  "ĠHig": 14769,
  "ĠHigg": 27330,
  "ĠHigh": 4029,
  "ĠHigher": 19940,
  "ĠHighland": 18250,
  "ĠHighlander": 24361,
  "ĠHighness": 20043,
  "ĠHighway": 20716,
  "ĠHil": 26336,
  "ĠHilda": 18837,
  "ĠHill": 8868,
  "ĠHillary": 27890,
  "ĠHills": 18489,
  "ĠHilton": 23139,
  "ĠHim": 2710,
  "ĠHimself": 10857,
  "ĠHind": 12167,
  "ĠHindu": 17620,
  "ĠHir": 20877,
  "ĠHis": 917,
  "ĠHispan": 25573,
  "ĠHispanic": 29365,
  "ĠHist": 9024,
  "ĠHistory": 11000,
  "ĠHit": 13152,
  "ĠHitler": 15340,
  "ĠHmm": 26509,
  "ĠHo": 14548,
  "ĠHob": 20812,
  "ĠHod": 24493,
  "ĠHog": 28596,
  "ĠHogan": 28671,
  "ĠHol": 9594,
  "ĠHold": 13167,
  "ĠHolding": 17676,
  "ĠHoll": 11918,
  "ĠHolland": 22630,
  "ĠHollow": 29828,
  "ĠHolly": 7533,
  "ĠHollywood": 12246,
  "ĠHolmes": 21898,
  "ĠHoly": 3839,
  "ĠHom": 11026,
  "ĠHome": 9714,
  "ĠHomer": 26091,
  "ĠHomo": 25120,
  "ĠHon": 8509,
  "ĠHonestly": 22734,
  "ĠHoney": 20137,
  "ĠHong": 17795,
  "ĠHonor": 16622,
  "ĠHoo": 28823,
  "ĠHood": 25627,
  "ĠHop": 19845,
  "ĠHope": 6979,
  "ĠHopefully": 13562,
  "ĠHopkins": 27106,
  "ĠHor": 9203,
  "ĠHorn": 27353,
  "ĠHorror": 28155,
  "ĠHorse": 17464,
  "ĠHosp": 21352,
  "ĠHospital": 10238,
  "ĠHost": 23429,
  "ĠHot": 9961,
  "ĠHotel": 14340,
  "ĠHou": 14552,
  "ĠHour": 29053,
  "ĠHouse": 4986,
  "ĠHouston": 15596,
  "ĠHow": 1219,
  "ĠHoward": 12574,
  "ĠHowever": 2552,
  "ĠHu": 9128,
  "ĠHud": 18546,
  "ĠHudson": 21867,
  "ĠHug": 14168,
  "ĠHugh": 16436,
  "ĠHughes": 29446,
  "ĠHugo": 19960,
  "ĠHuh": 29656,
  "ĠHum": 7644,
  "ĠHuman": 6721,
  "ĠHumanity": 28836,
  "ĠHumans": 13633,
  "ĠHumph": 26891,
  "ĠHun": 6813,
  "ĠHundred": 20720,
  "ĠHundreds": 27574,
  "ĠHung": 17836,
  "ĠHunt": 22131,
  "ĠHunter": 8687,
  "ĠHur": 14932,
  "ĠHus": 19335,
  "ĠHutch": 29998,
  "ĠHy": 7791,
  "ĠHyde": 27623,
  "ĠHyp": 23188,
  "ĠI": 300,
  "ĠIBM": 28234,
  "ĠIC": 18355,
  "ĠID": 9449,
  "ĠIF": 20315,
  "ĠII": 7683,
  "ĠIII": 13524,
  "ĠIL": 15125,
  "ĠIM": 18494,
  "ĠIN": 4390,
  "ĠIND": 28469,
  "ĠINS": 25064,
  "ĠINT": 29406,
  "ĠINTER": 21701,
  "ĠINTO": 29845,
  "ĠIR": 17518,
  "ĠIRS": 28881,
  "ĠIS": 6665,
  "ĠISBN": 18561,
  "ĠIT": 10264,
  "ĠIV": 12654,
  "ĠIan": 6909,
  "ĠIb": 13186,
  "ĠIbid": 23919,
  "ĠIbn": 22519,
  "ĠIbrahim": 27136,
  "ĠIce": 14873,
  "ĠIch": 25125,
  "ĠId": 10879,
  "ĠIde": 22745,
  "ĠIdent": 22306,
  "ĠIf": 983,
  "ĠIg": 22004,
  "ĠIgn": 15453,
  "ĠIk": 28595,
  "ĠIl": 14194,
  "ĠIll": 10508,
  "ĠIllinois": 22596,
  "ĠIm": 4440,
  "ĠImag": 28105,
  "ĠImagine": 16163,
  "ĠImam": 28879,
  "ĠImm": 11431,
  "ĠImmediately": 16360,
  "ĠImmort": 20898,
  "ĠImmortal": 28196,
  "ĠImp": 11669,
  "ĠImper": 13871,
  "ĠImperial": 16754,
  "ĠIn": 807,
  "ĠInc": 8592,
  "ĠInd": 2665,
  "ĠIndeed": 10485,
  "ĠIndependence": 28683,
  "ĠIndia": 6440,
  "ĠIndian": 7534,
  "ĠIndiana": 25887,
  "ĠIndians": 15540,
  "ĠIndividual": 24804,
  "ĠIndones": 25640,
  "ĠIndust": 18484,
  "ĠInf": 10898,
  "ĠInformation": 16846,
  "ĠIng": 15091,
  "ĠInit": 19704,
  "ĠInn": 11433,
  "ĠInquis": 23390,
  "ĠIns": 14711,
  "ĠInside": 10170,
  "ĠInspector": 15175,
  "ĠInst": 3051,
  "ĠInstantly": 25706,
  "ĠInstead": 4086,
  "ĠInstinct": 25555,
  "ĠInstitute": 9634,
  "ĠInt": 5312,
  "ĠIntegr": 29411,
  "ĠIntelligence": 17744,
  "ĠInter": 8669,
  "ĠInterest": 15871,
  "ĠInterestingly": 26898,
  "ĠIntern": 5822,
  "ĠInternational": 9701,
  "ĠInternet": 9527,
  "ĠInto": 27426,
  "ĠIntroduction": 24887,
  "ĠInv": 22590,
  "ĠInvest": 14395,
  "ĠIona": 29742,
  "ĠIowa": 26969,
  "ĠIr": 6994,
  "ĠIra": 8666,
  "ĠIran": 8795,
  "ĠIranian": 23019,
  "ĠIraq": 9246,
  "ĠIraqi": 20798,
  "ĠIre": 10080,
  "ĠIreland": 14106,
  "ĠIrene": 17685,
  "ĠIris": 15036,
  "ĠIrish": 10478,
  "ĠIron": 15719,
  "ĠIs": 1335,
  "ĠIsa": 6573,
  "ĠIsaac": 9005,
  "ĠIsab": 9623,
  "ĠIsabel": 25688,
  "ĠIsabella": 17747,
  "ĠIsabelle": 17740,
  "ĠIsaiah": 14140,
  "ĠIsh": 18128,
  "ĠIshmael": 27541,
  "ĠIslam": 4911,
  "ĠIslamic": 10427,
  "ĠIsland": 7511,
  "ĠIslands": 22584,
  "ĠIsle": 28605,
  "ĠIslena": 17544,
  "ĠIsn": 11805,
  "ĠIsrael": 3703,
  "ĠIsraeli": 22765,
  "ĠIsraelites": 19370,
  "ĠIss": 16404,
  "ĠIstanbul": 27114,
  "ĠIt": 539,
  "ĠItalian": 10481,
  "ĠItaly": 12671,
  "ĠIts": 6117,
  "ĠIvan": 12416,
  "ĠIvy": 17261,
  "ĠIz": 29280,
  "ĠIzzy": 17036,
  "ĠJ": 473,
  "ĠJESUS": 24344,
  "ĠJJ": 25709,
  "ĠJT": 21528,
  "ĠJa": 12235,
  "ĠJab": 21835,
  "ĠJac": 4003,
  "ĠJace": 13710,
  "ĠJack": 2241,
  "ĠJackie": 12568,
  "ĠJackson": 7971,
  "ĠJacob": 5007,
  "ĠJacobs": 26272,
  "ĠJacqueline": 23628,
  "ĠJacques": 22494,
  "ĠJad": 26573,
  "ĠJade": 12493,
  "ĠJaden": 20404,
  "ĠJae": 28946,
  "ĠJag": 25140,
  "ĠJak": 21367,
  "ĠJake": 3976,
  "ĠJal": 24651,
  "ĠJam": 6242,
  "ĠJama": 25377,
  "ĠJamal": 29975,
  "ĠJames": 2977,
  "ĠJameson": 29466,
  "ĠJamie": 8359,
  "ĠJan": 4002,
  "ĠJana": 25809,
  "ĠJane": 5175,
  "ĠJanet": 11892,
  "ĠJanice": 23165,
  "ĠJanie": 29250,
  "ĠJanine": 28873,
  "ĠJanuary": 8363,
  "ĠJapan": 5467,
  "ĠJapanese": 9398,
  "ĠJar": 13683,
  "ĠJared": 11334,
  "ĠJas": 22559,
  "ĠJase": 22480,
  "ĠJasmine": 14448,
  "ĠJason": 4702,
  "ĠJasper": 13310,
  "ĠJax": 16843,
  "ĠJay": 5628,
  "ĠJayne": 25477,
  "ĠJaz": 26693,
  "ĠJazz": 23505,
  "ĠJe": 2939,
  "ĠJean": 7254,
  "ĠJeb": 24170,
  "ĠJed": 15301,
  "ĠJeep": 17278,
  "ĠJeff": 5652,
  "ĠJefferson": 21231,
  "ĠJeffrey": 16912,
  "ĠJeho": 15884,
  "ĠJehovah": 17522,
  "ĠJem": 29171,
  "ĠJen": 6277,
  "ĠJenkins": 19698,
  "ĠJenn": 7641,
  "ĠJenna": 12214,
  "ĠJennifer": 9897,
  "ĠJenny": 6838,
  "ĠJer": 3881,
  "ĠJere": 6251,
  "ĠJeremiah": 13931,
  "ĠJeremy": 8099,
  "ĠJericho": 21042,
  "ĠJerome": 26516,
  "ĠJerry": 9789,
  "ĠJersey": 17502,
  "ĠJerusalem": 7629,
  "ĠJes": 21780,
  "ĠJess": 4929,
  "ĠJesse": 9052,
  "ĠJessica": 8619,
  "ĠJessie": 13584,
  "ĠJesus": 1733,
  "ĠJet": 23445,
  "ĠJew": 3805,
  "ĠJewel": 27870,
  "ĠJewish": 7744,
  "ĠJews": 6281,
  "ĠJi": 13771,
  "ĠJiang": 27620,
  "ĠJill": 7944,
  "ĠJillian": 19185,
  "ĠJim": 3409,
  "ĠJimmy": 6739,
  "ĠJin": 11003,
  "ĠJinks": 18300,
  "ĠJo": 2358,
  "ĠJoan": 11451,
  "ĠJoanna": 20094,
  "ĠJob": 15085,
  "ĠJod": 18945,
  "ĠJodie": 27144,
  "ĠJoe": 4680,
  "ĠJoel": 14204,
  "ĠJoey": 9844,
  "ĠJohan": 14904,
  "ĠJohn": 1743,
  "ĠJohnny": 6627,
  "ĠJohnson": 9442,
  "ĠJol": 25180,
  "ĠJon": 4014,
  "ĠJonah": 14927,
  "ĠJonas": 17296,
  "ĠJonathan": 8330,
  "ĠJones": 8276,
  "ĠJor": 23986,
  "ĠJordan": 9396,
  "ĠJos": 10515,
  "ĠJose": 4842,
  "ĠJoseph": 5736,
  "ĠJosephine": 27317,
  "ĠJosh": 4684,
  "ĠJoshua": 8289,
  "ĠJosie": 16407,
  "ĠJour": 11034,
  "ĠJournal": 13594,
  "ĠJourney": 27960,
  "ĠJoy": 11200,
  "ĠJoyce": 21339,
  "ĠJr": 17441,
  "ĠJu": 5693,
  "ĠJuan": 14180,
  "ĠJud": 4342,
  "ĠJuda": 22166,
  "ĠJudah": 13614,
  "ĠJudaism": 24244,
  "ĠJudas": 21888,
  "ĠJude": 14776,
  "ĠJudge": 11349,
  "ĠJudging": 28504,
  "ĠJudgment": 22657,
  "ĠJudith": 19144,
  "ĠJudy": 17125,
  "ĠJul": 3363,
  "ĠJules": 15529,
  "ĠJulia": 7651,
  "ĠJulian": 10400,
  "ĠJulie": 8773,
  "ĠJuliet": 17721,
  "ĠJulius": 22878,
  "ĠJuly": 7884,
  "ĠJun": 18492,
  "ĠJune": 7274,
  "ĠJung": 27166,
  "ĠJunior": 14980,
  "ĠJupiter": 19758,
  "ĠJur": 27547,
  "ĠJust": 1927,
  "ĠJustice": 11777,
  "ĠJustin": 9259,
  "ĠK": 618,
  "ĠKJV": 26839,
  "ĠKa": 9567,
  "ĠKai": 14390,
  "ĠKait": 16811,
  "ĠKaitlyn": 24913,
  "ĠKal": 11288,
  "ĠKale": 24630,
  "ĠKali": 19581,
  "ĠKam": 15167,
  "ĠKan": 21399,
  "ĠKane": 16323,
  "ĠKansas": 18884,
  "ĠKar": 6701,
  "ĠKara": 13830,
  "ĠKaren": 8295,
  "ĠKarl": 12356,
  "ĠKarma": 20464,
  "ĠKas": 21735,
  "ĠKass": 28839,
  "ĠKat": 4200,
  "ĠKate": 6202,
  "ĠKath": 14510,
  "ĠKatherine": 14084,
  "ĠKathleen": 24381,
  "ĠKathy": 15796,
  "ĠKatie": 9009,
  "ĠKatrina": 16725,
  "ĠKaty": 22032,
  "ĠKay": 8366,
  "ĠKaya": 28020,
  "ĠKayla": 21226,
  "ĠKaz": 20106,
  "ĠKe": 3406,
  "ĠKee": 19342,
  "ĠKeep": 7600,
  "ĠKeeper": 22106,
  "ĠKeeping": 22481,
  "ĠKein": 23652,
  "ĠKeira": 29128,
  "ĠKeith": 11386,
  "ĠKel": 11955,
  "ĠKell": 13050,
  "ĠKeller": 27458,
  "ĠKelly": 8282,
  "ĠKem": 26958,
  "ĠKen": 5424,
  "ĠKend": 14252,
  "ĠKenn": 15477,
  "ĠKennedy": 12979,
  "ĠKenneth": 19263,
  "ĠKenny": 19877,
  "ĠKent": 12808,
  "ĠKentucky": 27585,
  "ĠKer": 13896,
  "ĠKet": 26638,
  "ĠKev": 18696,
  "ĠKevin": 7526,
  "ĠKey": 13320,
  "ĠKh": 16310,
  "ĠKha": 22638,
  "ĠKhal": 22363,
  "ĠKhan": 19988,
  "ĠKi": 18675,
  "ĠKian": 28046,
  "ĠKid": 16470,
  "ĠKids": 26897,
  "ĠKier": 19773,
  "ĠKieran": 27834,
  "ĠKil": 23705,
  "ĠKill": 18825,
  "ĠKim": 6157,
  "ĠKimber": 27502,
  "ĠKimberly": 16655,
  "ĠKin": 24591,
  "ĠKind": 12283,
  "ĠKindle": 28137,
  "ĠKing": 2388,
  "ĠKingdom": 7114,
  "ĠKings": 11434,
  "ĠKip": 25976,
  "ĠKir": 18038,
  "ĠKira": 18754,
  "ĠKirk": 16899,
  "ĠKiss": 19813,
  "ĠKit": 12897,
  "ĠKitty": 23957,
  "ĠKl": 15178,
  "ĠKle": 21843,
  "ĠKn": 7159,
  "ĠKnight": 9277,
  "ĠKnights": 20496,
  "ĠKnow": 10524,
  "ĠKnowing": 12366,
  "ĠKnowledge": 17729,
  "ĠKnox": 28602,
  "ĠKo": 14820,
  "ĠKol": 25110,
  "ĠKon": 23140,
  "ĠKong": 17940,
  "ĠKor": 16259,
  "ĠKore": 9964,
  "ĠKorea": 14589,
  "ĠKorean": 22550,
  "ĠKos": 23080,
  "ĠKr": 12759,
  "ĠKra": 20856,
  "ĠKris": 18830,
  "ĠKrish": 17562,
  "ĠKrishna": 21814,
  "ĠKrist": 9122,
  "ĠKristen": 27023,
  "ĠKristin": 25997,
  "ĠKu": 21355,
  "ĠKur": 18562,
  "ĠKurt": 17362,
  "ĠKy": 8061,
  "ĠKyle": 6938,
  "ĠKyra": 24826,
  "ĠL": 474,
  "ĠLA": 14150,
  "ĠLC": 29682,
  "ĠLE": 13396,
  "ĠLEGS": 29386,
  "ĠLIFE": 29658,
  "ĠLIT": 18282,
  "ĠLO": 22717,
  "ĠLORD": 4910,
  "ĠLOVE": 27358,
  "ĠLa": 4522,
  "ĠLab": 14175,
  "ĠLabor": 17813,
  "ĠLaboratory": 29729,
  "ĠLacey": 17727,
  "ĠLacy": 24027,
  "ĠLady": 4993,
  "ĠLak": 26674,
  "ĠLake": 8263,
  "ĠLam": 13344,
  "ĠLamb": 15781,
  "ĠLan": 18365,
  "ĠLana": 11360,
  "ĠLanc": 25184,
  "ĠLance": 9550,
  "ĠLand": 6860,
  "ĠLandon": 23179,
  "ĠLands": 26902,
  "ĠLane": 14086,
  "ĠLang": 16865,
  "ĠLanguage": 29300,
  "ĠLar": 12051,
  "ĠLara": 24320,
  "ĠLarge": 21854,
  "ĠLark": 24003,
  "ĠLarry": 9139,
  "ĠLars": 24677,
  "ĠLas": 15163,
  "ĠLast": 8611,
  "ĠLat": 16547,
  "ĠLater": 10208,
  "ĠLatin": 13331,
  "ĠLaur": 6233,
  "ĠLaura": 7908,
  "ĠLaure": 8568,
  "ĠLauren": 11915,
  "ĠLaurie": 14824,
  "ĠLaw": 4778,
  "ĠLawrence": 14972,
  "ĠLaws": 21414,
  "ĠLawson": 28126,
  "ĠLay": 11255,
  "ĠLayla": 19621,
  "ĠLazarus": 21651,
  "ĠLe": 1905,
  "ĠLea": 28203,
  "ĠLead": 9996,
  "ĠLeader": 14471,
  "ĠLeaders": 27204,
  "ĠLeague": 16539,
  "ĠLeah": 12263,
  "ĠLeaning": 23663,
  "ĠLeanne": 26997,
  "ĠLear": 11886,
  "ĠLearn": 27286,
  "ĠLearning": 17995,
  "ĠLeave": 15375,
  "ĠLeaving": 22266,
  "ĠLeban": 22919,
  "ĠLebanon": 26746,
  "ĠLee": 6594,
  "ĠLeft": 16373,
  "ĠLeg": 10430,
  "ĠLegal": 26760,
  "ĠLegion": 21749,
  "ĠLeigh": 25039,
  "ĠLem": 22764,
  "ĠLen": 12155,
  "ĠLena": 14154,
  "ĠLenny": 29219,
  "ĠLeo": 10216,
  "ĠLeon": 8432,
  "ĠLeonard": 21321,
  "ĠLer": 16523,
  "ĠLeroy": 24747,
  "ĠLes": 11719,
  "ĠLeslie": 20581,
  "ĠLess": 15212,
  "ĠLester": 21819,
  "ĠLet": 2494,
  "ĠLetter": 19700,
  "ĠLev": 18291,
  "ĠLevel": 19251,
  "ĠLevi": 14642,
  "ĠLew": 10522,
  "ĠLewis": 11678,
  "ĠLex": 10511,
  "ĠLexi": 20177,
  "ĠLi": 9021,
  "ĠLia": 25055,
  "ĠLiam": 7985,
  "ĠLib": 9349,
  "ĠLibby": 23802,
  "ĠLiber": 13926,
  "ĠLiberty": 22893,
  "ĠLibrary": 17193,
  "ĠLic": 16640,
  "ĠLicense": 20269,
  "ĠLie": 7953,
  "ĠLieutenant": 9574,
  "ĠLife": 5210,
  "ĠLight": 5985,
  "ĠLightning": 27508,
  "ĠLights": 29817,
  "ĠLike": 3502,
  "ĠLikewise": 24042,
  "ĠLil": 10918,
  "ĠLila": 26208,
  "ĠLilith": 18158,
  "ĠLill": 28767,
  "ĠLillian": 22792,
  "ĠLilly": 16813,
  "ĠLily": 8026,
  "ĠLim": 15650,
  "ĠLin": 12077,
  "ĠLincoln": 12196,
  "ĠLind": 14721,
  "ĠLinda": 10078,
  "ĠLindsay": 23054,
  "ĠLindsey": 23737,
  "ĠLine": 20221,
  "ĠLing": 25087,
  "ĠLink": 7653,
  "ĠLion": 15415,
  "ĠLionel": 24701,
  "ĠLis": 20830,
  "ĠLisa": 7209,
  "ĠList": 17575,
  "ĠListen": 13724,
  "ĠLiter": 19954,
  "ĠLittle": 7275,
  "ĠLiu": 24650,
  "ĠLiv": 17739,
  "ĠLive": 20407,
  "ĠLiver": 29093,
  "ĠLiving": 13534,
  "ĠLiz": 8439,
  "ĠLizzie": 14494,
  "ĠLizzy": 25482,
  "ĠLl": 18617,
  "ĠLloyd": 23907,
  "ĠLo": 10089,
  "ĠLoc": 10696,
  "ĠLocal": 27539,
  "ĠLocation": 25934,
  "ĠLock": 23288,
  "ĠLocke": 29766,
  "ĠLodge": 22778,
  "ĠLog": 15549,
  "ĠLogan": 9618,
  "ĠLoki": 18632,
  "ĠLola": 23051,
  "ĠLon": 26497,
  "ĠLondon": 5001,
  "ĠLone": 20921,
  "ĠLong": 7755,
  "ĠLook": 6046,
  "ĠLooking": 7379,
  "ĠLooks": 19198,
  "ĠLor": 7078,
  "ĠLord": 1740,
  "ĠLords": 21442,
  "ĠLore": 17340,
  "ĠLoren": 19206,
  "ĠLori": 16620,
  "ĠLorio": 19436,
  "ĠLorna": 27117,
  "ĠLos": 10695,
  "ĠLost": 16524,
  "ĠLot": 13107,
  "ĠLots": 19450,
  "ĠLottie": 18133,
  "ĠLou": 4471,
  "ĠLouie": 19886,
  "ĠLouis": 6874,
  "ĠLouisa": 28611,
  "ĠLouise": 15743,
  "ĠLouisiana": 25682,
  "ĠLove": 4906,
  "ĠLow": 13444,
  "ĠLower": 25507,
  "ĠLt": 19303,
  "ĠLtd": 29032,
  "ĠLu": 9166,
  "ĠLuc": 3001,
  "ĠLuca": 26544,
  "ĠLucas": 8171,
  "ĠLucia": 24559,
  "ĠLucian": 18132,
  "ĠLucifer": 14393,
  "ĠLucinda": 28212,
  "ĠLucius": 19404,
  "ĠLuckily": 13478,
  "ĠLucky": 14607,
  "ĠLucy": 6532,
  "ĠLud": 22739,
  "ĠLuis": 21827,
  "ĠLuk": 20396,
  "ĠLuke": 4546,
  "ĠLulu": 21151,
  "ĠLun": 22272,
  "ĠLuna": 19341,
  "ĠLupe": 29626,
  "ĠLuther": 17571,
  "ĠLux": 29829,
  "ĠLy": 5494,
  "ĠLydia": 11901,
  "ĠLyle": 24723,
  "ĠLyn": 7612,
  "ĠLynn": 16092,
  "ĠLynne": 14745,
  "ĠM": 381,
  "ĠMA": 14331,
  "ĠMAN": 14918,
  "ĠMANY": 25908,
  "ĠMAT": 12434,
  "ĠMC": 19783,
  "ĠMD": 11463,
  "ĠME": 7127,
  "ĠMEAT": 15984,
  "ĠMET": 23261,
  "ĠMI": 22790,
  "ĠMIN": 25880,
  "ĠMO": 26194,
  "ĠMORE": 29733,
  "ĠMOT": 17622,
  "ĠMOTION": 25998,
[...]
